{
    "[PAD]": 0,
    "[UNK]": 1,
    "[CLS]": 2,
    "[SEP]": 3,
    "a": 4,
    "ac": 5,
    "accalauréa": 6,
    "accalauréat": 7,
    "acetylene": 8,
    "adio": 9,
    "adjudan": 10,
    "adjudant": 11,
    "affaire": 12,
    "agage": 13,
    "agne": 14,
    "ai": 15,
    "ail": 16,
    "ain": 17,
    "air": 18,
    "alan": 19,
    "alant": 20,
    "alexandre": 21,
    "ali": 22,
    "allez": 23,
    "alo": 24,
    "alon": 25,
    "alquer": 26,
    "am": 27,
    "amelle": 28,
    "amoxycilli": 29,
    "amoxycillin": 30,
    "ampicilli": 31,
    "ampicillin": 32,
    "ampuchia": 33,
    "an": 34,
    "anc": 35,
    "ancho": 36,
    "anchon": 37,
    "and": 38,
    "andale": 39,
    "ang": 40,
    "anger": 41,
    "anglais": 42,
    "anh": 43,
    "anila": 44,
    "ano": 45,
    "anon": 46,
    "ao": 47,
    "ap": 48,
    "apto": 49,
    "aptop": 50,
    "ar": 51,
    "arabine": 52,
    "aradona": 53,
    "arantie": 54,
    "arbide": 55,
    "arbone": 56,
    "arda": 57,
    "ardan": 58,
    "arde": 59,
    "ardie": 60,
    "ardien": 61,
    "argentina": 62,
    "aritimes": 63,
    "arker": 64,
    "arrier": 65,
    "arte": 66,
    "artisa": 67,
    "artisan": 68,
    "arto": 69,
    "arton": 70,
    "asquette": 71,
    "asse": 72,
    "assette": 73,
    "asti": 74,
    "astic": 75,
    "ate": 76,
    "atelo": 77,
    "atelot": 78,
    "atente": 79,
    "atha": 80,
    "ati": 81,
    "atin": 82,
    "atit": 83,
    "au": 84,
    "aut": 85,
    "axi": 86,
    "ay": 87,
    "azooka": 88,
    "b": 89,
    "ba": 90,
    "bac": 91,
    "baccalauréat": 92,
    "bagage": 93,
    "bagne": 94,
    "bai": 95,
    "bam": 96,
    "ban": 97,
    "banc": 98,
    "bang": 99,
    "banh": 100,
    "bao": 101,
    "bar": 102,
    "barrier": 103,
    "bay": 104,
    "bazooka": 105,
    "be": 106,
    "beaucoup": 107,
    "bel": 108,
    "bem": 109,
    "ben": 110,
    "beng": 111,
    "beo": 112,
    "bi": 113,
    "bia": 114,
    "bida": 115,
    "bidon": 116,
    "billard": 117,
    "bin": 118,
    "bingo": 119,
    "binh": 120,
    "bière": 121,
    "biên": 122,
    "biêu": 123,
    "biếm": 124,
    "biến": 125,
    "biếng": 126,
    "biết": 127,
    "biếu": 128,
    "biền": 129,
    "biển": 130,
    "biểu": 131,
    "biện": 132,
    "biệng": 133,
    "biệt": 134,
    "bloc": 135,
    "bo": 136,
    "boa": 137,
    "boire": 138,
    "bom": 139,
    "bon": 140,
    "bong": 141,
    "bonjour": 142,
    "bonsai": 143,
    "boong": 144,
    "botte": 145,
    "brazil": 146,
    "bscl": 147,
    "bu": 148,
    "bua": 149,
    "buffet": 150,
    "bugi": 151,
    "bui": 152,
    "bum": 153,
    "bung": 154,
    "buôi": 155,
    "buôn": 156,
    "buông": 157,
    "buồm": 158,
    "buồn": 159,
    "buồng": 160,
    "buổi": 161,
    "buộc": 162,
    "buột": 163,
    "bà": 164,
    "bài": 165,
    "bàm": 166,
    "bàn": 167,
    "bàng": 168,
    "bành": 169,
    "bào": 170,
    "bàu": 171,
    "bày": 172,
    "bá": 173,
    "bác": 174,
    "bách": 175,
    "bái": 176,
    "bám": 177,
    "bán": 178,
    "báng": 179,
    "bánh": 180,
    "báo": 181,
    "báp": 182,
    "bát": 183,
    "báu": 184,
    "bâm": 185,
    "bân": 186,
    "bâng": 187,
    "bâton": 188,
    "bâu": 189,
    "bây": 190,
    "bã": 191,
    "bãi": 192,
    "bãm": 193,
    "bão": 194,
    "bè": 195,
    "bèm": 196,
    "bèn": 197,
    "bèo": 198,
    "bé": 199,
    "bén": 200,
    "béng": 201,
    "béo": 202,
    "bép": 203,
    "bét": 204,
    "bê": 205,
    "bên": 206,
    "bênh": 207,
    "bêu": 208,
    "bì": 209,
    "bìa": 210,
    "bìm": 211,
    "bình": 212,
    "bìu": 213,
    "bí": 214,
    "bía": 215,
    "bích": 216,
    "bím": 217,
    "bín": 218,
    "bính": 219,
    "bít": 220,
    "bíu": 221,
    "bò": 222,
    "bòm": 223,
    "bòn": 224,
    "bòng": 225,
    "bó": 226,
    "bóc": 227,
    "bói": 228,
    "bón": 229,
    "bóng": 230,
    "bóp": 231,
    "bót": 232,
    "bô": 233,
    "bôi": 234,
    "bôm": 235,
    "bôn": 236,
    "bông": 237,
    "bõ": 238,
    "bõm": 239,
    "bõng": 240,
    "bù": 241,
    "bùa": 242,
    "bùi": 243,
    "bùm": 244,
    "bùn": 245,
    "bùng": 246,
    "bú": 247,
    "búa": 248,
    "búi": 249,
    "búm": 250,
    "bún": 251,
    "búng": 252,
    "búp": 253,
    "bút": 254,
    "băm": 255,
    "băn": 256,
    "băng": 257,
    "bĩnh": 258,
    "bĩu": 259,
    "bũm": 260,
    "bơ": 261,
    "bơi": 262,
    "bơm": 263,
    "bơn": 264,
    "bư": 265,
    "bưng": 266,
    "bưu": 267,
    "bươi": 268,
    "bươm": 269,
    "bươn": 270,
    "bương": 271,
    "bươu": 272,
    "bước": 273,
    "bưới": 274,
    "bướm": 275,
    "bướng": 276,
    "bướt": 277,
    "bướu": 278,
    "bườn": 279,
    "bường": 280,
    "bưởi": 281,
    "bưởng": 282,
    "bượp": 283,
    "bượt": 284,
    "bạ": 285,
    "bạc": 286,
    "bạch": 287,
    "bại": 288,
    "bạn": 289,
    "bạo": 290,
    "bạp": 291,
    "bạt": 292,
    "bạu": 293,
    "bả": 294,
    "bải": 295,
    "bảm": 296,
    "bản": 297,
    "bảng": 298,
    "bảnh": 299,
    "bảo": 300,
    "bảu": 301,
    "bảy": 302,
    "bấc": 303,
    "bấm": 304,
    "bấn": 305,
    "bấp": 306,
    "bất": 307,
    "bấu": 308,
    "bấy": 309,
    "bầm": 310,
    "bần": 311,
    "bầu": 312,
    "bầy": 313,
    "bẩm": 314,
    "bẩn": 315,
    "bẩu": 316,
    "bẩy": 317,
    "bẫm": 318,
    "bẫng": 319,
    "bẫu": 320,
    "bẫy": 321,
    "bậc": 322,
    "bậm": 323,
    "bận": 324,
    "bậng": 325,
    "bập": 326,
    "bật": 327,
    "bậu": 328,
    "bậy": 329,
    "bắc": 330,
    "bắm": 331,
    "bắn": 332,
    "bắng": 333,
    "bắp": 334,
    "bắt": 335,
    "bằm": 336,
    "bằn": 337,
    "bằng": 338,
    "bẳm": 339,
    "bẳn": 340,
    "bẳng": 341,
    "bẵm": 342,
    "bẵng": 343,
    "bặc": 344,
    "bặm": 345,
    "bặng": 346,
    "bặp": 347,
    "bặt": 348,
    "bẹ": 349,
    "bẹc": 350,
    "bẹn": 351,
    "bẹo": 352,
    "bẹp": 353,
    "bẹt": 354,
    "bẻ": 355,
    "bẻm": 356,
    "bẻo": 357,
    "bẽ": 358,
    "bẽn": 359,
    "bế": 360,
    "bến": 361,
    "bếp": 362,
    "bết": 363,
    "bề": 364,
    "bền": 365,
    "bềnh": 366,
    "bể": 367,
    "bển": 368,
    "bễ": 369,
    "bệ": 370,
    "bệch": 371,
    "bện": 372,
    "bệnh": 373,
    "bệp": 374,
    "bệt": 375,
    "bệu": 376,
    "bỉ": 377,
    "bỉnh": 378,
    "bỉu": 379,
    "bị": 380,
    "bịa": 381,
    "bịch": 382,
    "bịn": 383,
    "bịnh": 384,
    "bịp": 385,
    "bịt": 386,
    "bịu": 387,
    "bọ": 388,
    "bọc": 389,
    "bọn": 390,
    "bọng": 391,
    "bọp": 392,
    "bọt": 393,
    "bỏ": 394,
    "bỏng": 395,
    "bố": 396,
    "bốc": 397,
    "bối": 398,
    "bốn": 399,
    "bống": 400,
    "bốp": 401,
    "bốt": 402,
    "bồ": 403,
    "bồi": 404,
    "bồm": 405,
    "bồn": 406,
    "bồng": 407,
    "bổ": 408,
    "bổi": 409,
    "bổn": 410,
    "bổng": 411,
    "bỗ": 412,
    "bỗng": 413,
    "bộ": 414,
    "bộc": 415,
    "bội": 416,
    "bộn": 417,
    "bộng": 418,
    "bộp": 419,
    "bột": 420,
    "bớ": 421,
    "bới": 422,
    "bớn": 423,
    "bớp": 424,
    "bớt": 425,
    "bờ": 426,
    "bời": 427,
    "bờm": 428,
    "bở": 429,
    "bởi": 430,
    "bỡ": 431,
    "bỡn": 432,
    "bợ": 433,
    "bợm": 434,
    "bợn": 435,
    "bợp": 436,
    "bợt": 437,
    "bụ": 438,
    "bục": 439,
    "bụi": 440,
    "bụm": 441,
    "bụng": 442,
    "bụp": 443,
    "bụt": 444,
    "bủa": 445,
    "bủm": 446,
    "bủn": 447,
    "bứ": 448,
    "bứa": 449,
    "bức": 450,
    "bứng": 451,
    "bứt": 452,
    "bừa": 453,
    "bừng": 454,
    "bửa": 455,
    "bửng": 456,
    "bữa": 457,
    "bự": 458,
    "bựa": 459,
    "bực": 460,
    "bựng": 461,
    "bựt": 462,
    "c": 463,
    "ca": 464,
    "cai": 465,
    "calquer": 466,
    "cam": 467,
    "campuchia": 468,
    "can": 469,
    "cang": 470,
    "canh": 471,
    "canon": 472,
    "cao": 473,
    "cap": 474,
    "carabine": 475,
    "carbide": 476,
    "carbone": 477,
    "cardan": 478,
    "carte": 479,
    "carton": 480,
    "casquette": 481,
    "cassette": 482,
    "cau": 483,
    "cay": 484,
    "cd": 485,
    "cercle": 486,
    "ch": 487,
    "cha": 488,
    "chai": 489,
    "cham": 490,
    "chan": 491,
    "chang": 492,
    "chanh": 493,
    "chao": 494,
    "chau": 495,
    "chay": 496,
    "che": 497,
    "chen": 498,
    "cheng": 499,
    "cheo": 500,
    "chi": 501,
    "chia": 502,
    "chim": 503,
    "chinh": 504,
    "chiu": 505,
    "chiéng": 506,
    "chiên": 507,
    "chiêng": 508,
    "chiêu": 509,
    "chiếc": 510,
    "chiếm": 511,
    "chiến": 512,
    "chiếng": 513,
    "chiết": 514,
    "chiếu": 515,
    "chiền": 516,
    "chiều": 517,
    "chiện": 518,
    "cho": 519,
    "choai": 520,
    "choi": 521,
    "chon": 522,
    "chong": 523,
    "choàng": 524,
    "choác": 525,
    "choán": 526,
    "choáng": 527,
    "choãi": 528,
    "choè": 529,
    "choèn": 530,
    "choạng": 531,
    "choẹ": 532,
    "choẹt": 533,
    "chu": 534,
    "chua": 535,
    "chui": 536,
    "chum": 537,
    "chun": 538,
    "chung": 539,
    "chuyên": 540,
    "chuyến": 541,
    "chuyền": 542,
    "chuyển": 543,
    "chuyện": 544,
    "chuông": 545,
    "chuẩn": 546,
    "chuốc": 547,
    "chuối": 548,
    "chuốt": 549,
    "chuồi": 550,
    "chuồn": 551,
    "chuồng": 552,
    "chuỗi": 553,
    "chuộc": 554,
    "chuộng": 555,
    "chuột": 556,
    "chà": 557,
    "chài": 558,
    "chàm": 559,
    "chàng": 560,
    "chành": 561,
    "chào": 562,
    "chàu": 563,
    "chày": 564,
    "chá": 565,
    "chác": 566,
    "chách": 567,
    "chái": 568,
    "chán": 569,
    "cháng": 570,
    "chánh": 571,
    "cháo": 572,
    "chát": 573,
    "cháu": 574,
    "cháy": 575,
    "châm": 576,
    "chân": 577,
    "châu": 578,
    "chây": 579,
    "chã": 580,
    "chãi": 581,
    "chãng": 582,
    "chãnh": 583,
    "chè": 584,
    "chèm": 585,
    "chèn": 586,
    "chèo": 587,
    "chéc": 588,
    "chém": 589,
    "chén": 590,
    "chéng": 591,
    "chéo": 592,
    "chép": 593,
    "chét": 594,
    "chê": 595,
    "chêm": 596,
    "chênh": 597,
    "chêu": 598,
    "chì": 599,
    "chìa": 600,
    "chìm": 601,
    "chình": 602,
    "chí": 603,
    "chía": 604,
    "chích": 605,
    "chím": 606,
    "chín": 607,
    "chính": 608,
    "chít": 609,
    "chò": 610,
    "chòi": 611,
    "chòm": 612,
    "chòng": 613,
    "chó": 614,
    "chóc": 615,
    "chói": 616,
    "chóm": 617,
    "chóng": 618,
    "chóp": 619,
    "chót": 620,
    "chôm": 621,
    "chôn": 622,
    "chông": 623,
    "chõ": 624,
    "chõm": 625,
    "chõng": 626,
    "chù": 627,
    "chùa": 628,
    "chùi": 629,
    "chùm": 630,
    "chùn": 631,
    "chùng": 632,
    "chú": 633,
    "chúa": 634,
    "chúc": 635,
    "chúi": 636,
    "chúm": 637,
    "chúng": 638,
    "chút": 639,
    "chăm": 640,
    "chăn": 641,
    "chăng": 642,
    "chĩa": 643,
    "chũ": 644,
    "chũm": 645,
    "chơ": 646,
    "chơi": 647,
    "chơm": 648,
    "chơn": 649,
    "chư": 650,
    "chưa": 651,
    "chưn": 652,
    "chưng": 653,
    "chương": 654,
    "chước": 655,
    "chướng": 656,
    "chường": 657,
    "chưởi": 658,
    "chưởng": 659,
    "chạc": 660,
    "chạch": 661,
    "chạm": 662,
    "chạn": 663,
    "chạng": 664,
    "chạnh": 665,
    "chạo": 666,
    "chạp": 667,
    "chạt": 668,
    "chạy": 669,
    "chả": 670,
    "chải": 671,
    "chảm": 672,
    "chảng": 673,
    "chảnh": 674,
    "chảo": 675,
    "chảu": 676,
    "chảy": 677,
    "chấm": 678,
    "chấn": 679,
    "chấp": 680,
    "chất": 681,
    "chấu": 682,
    "chấy": 683,
    "chầm": 684,
    "chần": 685,
    "chầu": 686,
    "chầy": 687,
    "chẩm": 688,
    "chẩu": 689,
    "chẫu": 690,
    "chậm": 691,
    "chận": 692,
    "chập": 693,
    "chật": 694,
    "chậu": 695,
    "chắc": 696,
    "chắm": 697,
    "chắn": 698,
    "chắp": 699,
    "chắt": 700,
    "chằm": 701,
    "chằn": 702,
    "chằng": 703,
    "chẳm": 704,
    "chẳn": 705,
    "chẳng": 706,
    "chẵn": 707,
    "chặm": 708,
    "chặn": 709,
    "chặng": 710,
    "chặp": 711,
    "chặt": 712,
    "chẹ": 713,
    "chẹn": 714,
    "chẹo": 715,
    "chẹp": 716,
    "chẹt": 717,
    "chẻ": 718,
    "chẻm": 719,
    "chẽ": 720,
    "chẽm": 721,
    "chẽn": 722,
    "chẽo": 723,
    "chế": 724,
    "chếch": 725,
    "chến": 726,
    "chếnh": 727,
    "chếp": 728,
    "chết": 729,
    "chề": 730,
    "chềm": 731,
    "chễm": 732,
    "chễnh": 733,
    "chệ": 734,
    "chệc": 735,
    "chệch": 736,
    "chệnh": 737,
    "chệp": 738,
    "chỉ": 739,
    "chỉa": 740,
    "chỉnh": 741,
    "chị": 742,
    "chịa": 743,
    "chịt": 744,
    "chịu": 745,
    "chọ": 746,
    "chọc": 747,
    "chọe": 748,
    "chọi": 749,
    "chọn": 750,
    "chọt": 751,
    "chỏ": 752,
    "chỏi": 753,
    "chỏm": 754,
    "chỏng": 755,
    "chốc": 756,
    "chối": 757,
    "chốn": 758,
    "chống": 759,
    "chốt": 760,
    "chồi": 761,
    "chồm": 762,
    "chồn": 763,
    "chồng": 764,
    "chổi": 765,
    "chổng": 766,
    "chỗ": 767,
    "chỗi": 768,
    "chỗm": 769,
    "chộ": 770,
    "chội": 771,
    "chộn": 772,
    "chộp": 773,
    "chột": 774,
    "chớ": 775,
    "chới": 776,
    "chớm": 777,
    "chớn": 778,
    "chớp": 779,
    "chớt": 780,
    "chờ": 781,
    "chờm": 782,
    "chờn": 783,
    "chở": 784,
    "chởm": 785,
    "chợ": 786,
    "chợp": 787,
    "chợt": 788,
    "chục": 789,
    "chụm": 790,
    "chụp": 791,
    "chủ": 792,
    "chủn": 793,
    "chủng": 794,
    "chứ": 795,
    "chứa": 796,
    "chức": 797,
    "chứng": 798,
    "chừ": 799,
    "chừa": 800,
    "chừng": 801,
    "chửa": 802,
    "chửi": 803,
    "chửng": 804,
    "chữ": 805,
    "chữa": 806,
    "chững": 807,
    "chự": 808,
    "chực": 809,
    "chựng": 810,
    "cinéma": 811,
    "cmnd": 812,
    "co": 813,
    "cognac": 814,
    "coi": 815,
    "collier": 816,
    "collège": 817,
    "colt": 818,
    "com": 819,
    "commande": 820,
    "con": 821,
    "cong": 822,
    "copier": 823,
    "corner": 824,
    "corps": 825,
    "cours": 826,
    "crème": 827,
    "cu": 828,
    "cua": 829,
    "cui": 830,
    "cum": 831,
    "cung": 832,
    "curoa": 833,
    "cuốc": 834,
    "cuối": 835,
    "cuốn": 836,
    "cuống": 837,
    "cuồn": 838,
    "cuồng": 839,
    "cuỗm": 840,
    "cuộc": 841,
    "cuội": 842,
    "cuộn": 843,
    "cuộng": 844,
    "cà": 845,
    "cài": 846,
    "càm": 847,
    "càn": 848,
    "càng": 849,
    "cành": 850,
    "cào": 851,
    "càu": 852,
    "cày": 853,
    "cá": 854,
    "các": 855,
    "cách": 856,
    "cái": 857,
    "cám": 858,
    "cán": 859,
    "cáng": 860,
    "cánh": 861,
    "cáo": 862,
    "cáp": 863,
    "cát": 864,
    "cáu": 865,
    "cáy": 866,
    "câm": 867,
    "cân": 868,
    "câu": 869,
    "cây": 870,
    "cã": 871,
    "cãi": 872,
    "cò": 873,
    "còi": 874,
    "còm": 875,
    "còn": 876,
    "còng": 877,
    "có": 878,
    "cóc": 879,
    "cói": 880,
    "cóm": 881,
    "cón": 882,
    "cóng": 883,
    "cóp": 884,
    "cót": 885,
    "cô": 886,
    "côi": 887,
    "côm": 888,
    "côn": 889,
    "công": 890,
    "cõi": 891,
    "cõng": 892,
    "cù": 893,
    "cùi": 894,
    "cùm": 895,
    "cùn": 896,
    "cùng": 897,
    "cú": 898,
    "cúc": 899,
    "cúi": 900,
    "cúm": 901,
    "cúng": 902,
    "cúp": 903,
    "cút": 904,
    "căm": 905,
    "căn": 906,
    "căng": 907,
    "cũ": 908,
    "cũi": 909,
    "cũn": 910,
    "cũng": 911,
    "cơ": 912,
    "cơi": 913,
    "cơm": 914,
    "cơn": 915,
    "cư": 916,
    "cưa": 917,
    "cưng": 918,
    "cương": 919,
    "cước": 920,
    "cưới": 921,
    "cướng": 922,
    "cướp": 923,
    "cười": 924,
    "cườm": 925,
    "cường": 926,
    "cưỡi": 927,
    "cưỡng": 928,
    "cược": 929,
    "cượng": 930,
    "cạ": 931,
    "cạc": 932,
    "cạch": 933,
    "cạn": 934,
    "cạnh": 935,
    "cạo": 936,
    "cạp": 937,
    "cạu": 938,
    "cạy": 939,
    "cả": 940,
    "cải": 941,
    "cảm": 942,
    "cản": 943,
    "cảng": 944,
    "cảnh": 945,
    "cảo": 946,
    "cảu": 947,
    "cảy": 948,
    "cấc": 949,
    "cấm": 950,
    "cấn": 951,
    "cấp": 952,
    "cất": 953,
    "cấu": 954,
    "cấy": 955,
    "cầm": 956,
    "cần": 957,
    "cầu": 958,
    "cầy": 959,
    "cẩm": 960,
    "cẩn": 961,
    "cẩu": 962,
    "cẩy": 963,
    "cẫng": 964,
    "cận": 965,
    "cập": 966,
    "cật": 967,
    "cậu": 968,
    "cậy": 969,
    "cắc": 970,
    "cắm": 971,
    "cắn": 972,
    "cắng": 973,
    "cắp": 974,
    "cắt": 975,
    "cằm": 976,
    "cằn": 977,
    "cẳng": 978,
    "cặc": 979,
    "cặm": 980,
    "cặn": 981,
    "cặng": 982,
    "cặp": 983,
    "cệch": 984,
    "cọ": 985,
    "cọc": 986,
    "cọm": 987,
    "cọn": 988,
    "cọng": 989,
    "cọp": 990,
    "cọt": 991,
    "cỏ": 992,
    "cỏi": 993,
    "cỏn": 994,
    "cỏng": 995,
    "cố": 996,
    "cốc": 997,
    "cối": 998,
    "cốm": 999,
    "cốn": 1000,
    "cống": 1001,
    "cốt": 1002,
    "cồ": 1003,
    "cồi": 1004,
    "cồn": 1005,
    "cồng": 1006,
    "cổ": 1007,
    "cổi": 1008,
    "cổng": 1009,
    "cỗ": 1010,
    "cỗi": 1011,
    "cộ": 1012,
    "cộc": 1013,
    "cội": 1014,
    "cộm": 1015,
    "cộng": 1016,
    "cộp": 1017,
    "cột": 1018,
    "cớ": 1019,
    "cớn": 1020,
    "cờ": 1021,
    "cời": 1022,
    "cởi": 1023,
    "cỡ": 1024,
    "cỡi": 1025,
    "cỡm": 1026,
    "cỡn": 1027,
    "cợm": 1028,
    "cợn": 1029,
    "cợt": 1030,
    "cụ": 1031,
    "cục": 1032,
    "cụi": 1033,
    "cụm": 1034,
    "cụng": 1035,
    "cụp": 1036,
    "cụt": 1037,
    "củ": 1038,
    "của": 1039,
    "củi": 1040,
    "củm": 1041,
    "củn": 1042,
    "củng": 1043,
    "cứ": 1044,
    "cứa": 1045,
    "cứng": 1046,
    "cứt": 1047,
    "cứu": 1048,
    "cừ": 1049,
    "cừu": 1050,
    "cử": 1051,
    "cửa": 1052,
    "cửu": 1053,
    "cữ": 1054,
    "cững": 1055,
    "cự": 1056,
    "cựa": 1057,
    "cực": 1058,
    "cựng": 1059,
    "cựu": 1060,
    "d": 1061,
    "da": 1062,
    "dai": 1063,
    "dan": 1064,
    "dang": 1065,
    "danh": 1066,
    "dao": 1067,
    "dau": 1068,
    "day": 1069,
    "de": 1070,
    "deadline": 1071,
    "deo": 1072,
    "di": 1073,
    "dia": 1074,
    "dim": 1075,
    "dinh": 1076,
    "diêm": 1077,
    "diên": 1078,
    "diêu": 1079,
    "diếm": 1080,
    "diếp": 1081,
    "diềm": 1082,
    "diều": 1083,
    "diễn": 1084,
    "diễu": 1085,
    "diệc": 1086,
    "diệm": 1087,
    "diện": 1088,
    "diệt": 1089,
    "do": 1090,
    "doa": 1091,
    "doan": 1092,
    "doanh": 1093,
    "doi": 1094,
    "dom": 1095,
    "don": 1096,
    "dong": 1097,
    "doá": 1098,
    "doãng": 1099,
    "doạ": 1100,
    "du": 1101,
    "dua": 1102,
    "dung": 1103,
    "duy": 1104,
    "duyên": 1105,
    "duyệt": 1106,
    "duôi": 1107,
    "duồng": 1108,
    "duỗi": 1109,
    "dvd": 1110,
    "dà": 1111,
    "dài": 1112,
    "dàm": 1113,
    "dàn": 1114,
    "dàng": 1115,
    "dành": 1116,
    "dào": 1117,
    "dày": 1118,
    "dá": 1119,
    "dác": 1120,
    "dách": 1121,
    "dái": 1122,
    "dám": 1123,
    "dán": 1124,
    "dáng": 1125,
    "dánh": 1126,
    "dáo": 1127,
    "dáu": 1128,
    "dáy": 1129,
    "dâm": 1130,
    "dân": 1131,
    "dâng": 1132,
    "dâu": 1133,
    "dây": 1134,
    "dã": 1135,
    "dãi": 1136,
    "dão": 1137,
    "dãy": 1138,
    "dè": 1139,
    "dèm": 1140,
    "dèo": 1141,
    "dé": 1142,
    "démarrer": 1143,
    "dép": 1144,
    "dê": 1145,
    "dên": 1146,
    "dênh": 1147,
    "dì": 1148,
    "dìm": 1149,
    "dình": 1150,
    "dí": 1151,
    "dính": 1152,
    "díp": 1153,
    "díu": 1154,
    "dò": 1155,
    "dòi": 1156,
    "dòm": 1157,
    "dòng": 1158,
    "dó": 1159,
    "dóc": 1160,
    "dóm": 1161,
    "dóng": 1162,
    "dô": 1163,
    "dôi": 1164,
    "dông": 1165,
    "dõi": 1166,
    "dõng": 1167,
    "dù": 1168,
    "dùa": 1169,
    "dùi": 1170,
    "dùm": 1171,
    "dùng": 1172,
    "dú": 1173,
    "dúa": 1174,
    "dúi": 1175,
    "dúm": 1176,
    "dún": 1177,
    "dúng": 1178,
    "dăm": 1179,
    "dăn": 1180,
    "dăng": 1181,
    "dĩ": 1182,
    "dĩa": 1183,
    "dĩn": 1184,
    "dĩnh": 1185,
    "dũng": 1186,
    "dơ": 1187,
    "dơm": 1188,
    "dư": 1189,
    "dưa": 1190,
    "dưng": 1191,
    "dương": 1192,
    "dưới": 1193,
    "dường": 1194,
    "dưỡng": 1195,
    "dược": 1196,
    "dượi": 1197,
    "dượng": 1198,
    "dượt": 1199,
    "dạ": 1200,
    "dạc": 1201,
    "dại": 1202,
    "dạm": 1203,
    "dạn": 1204,
    "dạng": 1205,
    "dạo": 1206,
    "dạt": 1207,
    "dạu": 1208,
    "dạy": 1209,
    "dải": 1210,
    "dảnh": 1211,
    "dấm": 1212,
    "dấn": 1213,
    "dấp": 1214,
    "dấu": 1215,
    "dầm": 1216,
    "dần": 1217,
    "dầu": 1218,
    "dầy": 1219,
    "dẩu": 1220,
    "dẫm": 1221,
    "dẫn": 1222,
    "dẫu": 1223,
    "dậm": 1224,
    "dập": 1225,
    "dật": 1226,
    "dậu": 1227,
    "dậy": 1228,
    "dắt": 1229,
    "dằm": 1230,
    "dằn": 1231,
    "dằng": 1232,
    "dẳng": 1233,
    "dặc": 1234,
    "dặm": 1235,
    "dặn": 1236,
    "dặt": 1237,
    "dẹo": 1238,
    "dẹp": 1239,
    "dẹt": 1240,
    "dẻ": 1241,
    "dẻo": 1242,
    "dẽ": 1243,
    "dẽo": 1244,
    "dế": 1245,
    "dếch": 1246,
    "dến": 1247,
    "dề": 1248,
    "dềnh": 1249,
    "dể": 1250,
    "dễ": 1251,
    "dện": 1252,
    "dệnh": 1253,
    "dệt": 1254,
    "dệu": 1255,
    "dỉ": 1256,
    "dị": 1257,
    "dịch": 1258,
    "dịp": 1259,
    "dịu": 1260,
    "dọ": 1261,
    "dọa": 1262,
    "dọc": 1263,
    "dọi": 1264,
    "dọn": 1265,
    "dọng": 1266,
    "dỏi": 1267,
    "dỏm": 1268,
    "dỏng": 1269,
    "dố": 1270,
    "dốc": 1271,
    "dối": 1272,
    "dốt": 1273,
    "dồ": 1274,
    "dồi": 1275,
    "dồn": 1276,
    "dổi": 1277,
    "dỗ": 1278,
    "dỗi": 1279,
    "dội": 1280,
    "dộng": 1281,
    "dộp": 1282,
    "dột": 1283,
    "dớp": 1284,
    "dớt": 1285,
    "dời": 1286,
    "dờn": 1287,
    "dở": 1288,
    "dỡ": 1289,
    "dợn": 1290,
    "dợt": 1291,
    "dụ": 1292,
    "dục": 1293,
    "dụi": 1294,
    "dụm": 1295,
    "dụng": 1296,
    "dứ": 1297,
    "dứa": 1298,
    "dức": 1299,
    "dứng": 1300,
    "dứt": 1301,
    "dừa": 1302,
    "dừng": 1303,
    "dửng": 1304,
    "dữ": 1305,
    "dự": 1306,
    "dựa": 1307,
    "dựng": 1308,
    "e": 1309,
    "eadline": 1310,
    "eaucou": 1311,
    "eaucoup": 1312,
    "econd": 1313,
    "ecta": 1314,
    "el": 1315,
    "eletype": 1316,
    "elure": 1317,
    "em": 1318,
    "en": 1319,
    "enalty": 1320,
    "eng": 1321,
    "enicilli": 1322,
    "enicillin": 1323,
    "ennis": 1324,
    "enquête": 1325,
    "eo": 1326,
    "ep": 1327,
    "erci": 1328,
    "ercle": 1329,
    "ermanen": 1330,
    "ermanent": 1331,
    "essageries": 1332,
    "et": 1333,
    "ex": 1334,
    "ext": 1335,
    "f": 1336,
    "france": 1337,
    "g": 1338,
    "ga": 1339,
    "gai": 1340,
    "galant": 1341,
    "galon": 1342,
    "gam": 1343,
    "gamelle": 1344,
    "gan": 1345,
    "gang": 1346,
    "ganh": 1347,
    "gao": 1348,
    "garantie": 1349,
    "garde": 1350,
    "gardien": 1351,
    "gay": 1352,
    "gh": 1353,
    "ghe": 1354,
    "ghen": 1355,
    "ghi": 1356,
    "ghim": 1357,
    "ghiếc": 1358,
    "ghiền": 1359,
    "ghè": 1360,
    "ghèn": 1361,
    "ghé": 1362,
    "ghém": 1363,
    "ghép": 1364,
    "ghét": 1365,
    "ghê": 1366,
    "ghì": 1367,
    "ghình": 1368,
    "ghẹ": 1369,
    "ghẹo": 1370,
    "ghẻ": 1371,
    "ghẽ": 1372,
    "ghế": 1373,
    "ghếnh": 1374,
    "ghề": 1375,
    "ghềnh": 1376,
    "ghệ": 1377,
    "gi": 1378,
    "gia": 1379,
    "giai": 1380,
    "giam": 1381,
    "gian": 1382,
    "giang": 1383,
    "gianh": 1384,
    "giao": 1385,
    "gie": 1386,
    "gieo": 1387,
    "gin": 1388,
    "giong": 1389,
    "giun": 1390,
    "giuộc": 1391,
    "già": 1392,
    "giàm": 1393,
    "giàn": 1394,
    "giàng": 1395,
    "giành": 1396,
    "giàu": 1397,
    "giày": 1398,
    "giá": 1399,
    "giác": 1400,
    "giái": 1401,
    "giám": 1402,
    "gián": 1403,
    "giáng": 1404,
    "giánh": 1405,
    "giáo": 1406,
    "giáp": 1407,
    "giát": 1408,
    "giây": 1409,
    "giã": 1410,
    "giãi": 1411,
    "giãn": 1412,
    "giãy": 1413,
    "giè": 1414,
    "giép": 1415,
    "giê": 1416,
    "giêng": 1417,
    "giò": 1418,
    "giòi": 1419,
    "giòn": 1420,
    "gió": 1421,
    "gióng": 1422,
    "giông": 1423,
    "giùm": 1424,
    "giú": 1425,
    "giúc": 1426,
    "giún": 1427,
    "giúp": 1428,
    "giăng": 1429,
    "giũ": 1430,
    "giơ": 1431,
    "giương": 1432,
    "giường": 1433,
    "giạ": 1434,
    "giạc": 1435,
    "giại": 1436,
    "giạt": 1437,
    "giả": 1438,
    "giải": 1439,
    "giảm": 1440,
    "giản": 1441,
    "giảng": 1442,
    "giảnh": 1443,
    "giảo": 1444,
    "giảu": 1445,
    "giấc": 1446,
    "giấm": 1447,
    "giấp": 1448,
    "giấu": 1449,
    "giấy": 1450,
    "giầm": 1451,
    "giần": 1452,
    "giầu": 1453,
    "giầy": 1454,
    "giẫm": 1455,
    "giẫy": 1456,
    "giậm": 1457,
    "giận": 1458,
    "giập": 1459,
    "giật": 1460,
    "giắc": 1461,
    "giắt": 1462,
    "giằn": 1463,
    "giằng": 1464,
    "giặc": 1465,
    "giặm": 1466,
    "giặp": 1467,
    "giặt": 1468,
    "giẹo": 1469,
    "giẻ": 1470,
    "giếm": 1471,
    "giếng": 1472,
    "giết": 1473,
    "giềng": 1474,
    "giễu": 1475,
    "giọ": 1476,
    "giọng": 1477,
    "giọt": 1478,
    "giỏ": 1479,
    "giỏi": 1480,
    "giống": 1481,
    "giồng": 1482,
    "giỗ": 1483,
    "giộc": 1484,
    "giội": 1485,
    "giới": 1486,
    "giờ": 1487,
    "giời": 1488,
    "giờn": 1489,
    "giở": 1490,
    "giỡn": 1491,
    "giụa": 1492,
    "giục": 1493,
    "giụm": 1494,
    "giụt": 1495,
    "giữ": 1496,
    "giữa": 1497,
    "giựt": 1498,
    "gmc": 1499,
    "go": 1500,
    "gom": 1501,
    "gracey": 1502,
    "gramme": 1503,
    "gu": 1504,
    "gucci": 1505,
    "guitar": 1506,
    "guốc": 1507,
    "guồng": 1508,
    "guộc": 1509,
    "guộn": 1510,
    "guột": 1511,
    "gà": 1512,
    "gài": 1513,
    "gàn": 1514,
    "gàng": 1515,
    "gành": 1516,
    "gào": 1517,
    "gàu": 1518,
    "gày": 1519,
    "gá": 1520,
    "gác": 1521,
    "gái": 1522,
    "gán": 1523,
    "gánh": 1524,
    "gáo": 1525,
    "gáp": 1526,
    "gáy": 1527,
    "gân": 1528,
    "gây": 1529,
    "gã": 1530,
    "gãi": 1531,
    "gãy": 1532,
    "gì": 1533,
    "gìn": 1534,
    "gí": 1535,
    "gò": 1536,
    "gòn": 1537,
    "góa": 1538,
    "góc": 1539,
    "gói": 1540,
    "góp": 1541,
    "gót": 1542,
    "gô": 1543,
    "gôm": 1544,
    "gôn": 1545,
    "gông": 1546,
    "gõ": 1547,
    "gù": 1548,
    "gùi": 1549,
    "gún": 1550,
    "gút": 1551,
    "găm": 1552,
    "găng": 1553,
    "gũi": 1554,
    "gương": 1555,
    "gườm": 1556,
    "gưỡng": 1557,
    "gượng": 1558,
    "gạ": 1559,
    "gạc": 1560,
    "gạch": 1561,
    "gại": 1562,
    "gạn": 1563,
    "gạo": 1564,
    "gạt": 1565,
    "gạy": 1566,
    "gả": 1567,
    "gảnh": 1568,
    "gảy": 1569,
    "gấm": 1570,
    "gấp": 1571,
    "gấu": 1572,
    "gầm": 1573,
    "gần": 1574,
    "gầy": 1575,
    "gẩm": 1576,
    "gẩy": 1577,
    "gẫm": 1578,
    "gẫu": 1579,
    "gẫy": 1580,
    "gập": 1581,
    "gật": 1582,
    "gậy": 1583,
    "gắm": 1584,
    "gắn": 1585,
    "gắng": 1586,
    "gắp": 1587,
    "gắt": 1588,
    "gằm": 1589,
    "gặc": 1590,
    "gặm": 1591,
    "gặp": 1592,
    "gặt": 1593,
    "gỉ": 1594,
    "gọ": 1595,
    "gọi": 1596,
    "gọn": 1597,
    "gọng": 1598,
    "gọt": 1599,
    "gỏi": 1600,
    "gỏng": 1601,
    "gốc": 1602,
    "gối": 1603,
    "gốm": 1604,
    "gồ": 1605,
    "gồm": 1606,
    "gồng": 1607,
    "gổ": 1608,
    "gỗ": 1609,
    "gộc": 1610,
    "gội": 1611,
    "gộng": 1612,
    "gộp": 1613,
    "gột": 1614,
    "gớm": 1615,
    "gờ": 1616,
    "gở": 1617,
    "gởi": 1618,
    "gởn": 1619,
    "gỡ": 1620,
    "gợi": 1621,
    "gợn": 1622,
    "gụ": 1623,
    "gục": 1624,
    "gụi": 1625,
    "gụt": 1626,
    "gủn": 1627,
    "gừ": 1628,
    "gừa": 1629,
    "gừng": 1630,
    "gửi": 1631,
    "h": 1632,
    "ha": 1633,
    "hai": 1634,
    "ham": 1635,
    "han": 1636,
    "hand": 1637,
    "hang": 1638,
    "hanh": 1639,
    "hao": 1640,
    "hate": 1641,
    "hau": 1642,
    "hay": 1643,
    "he": 1644,
    "hecta": 1645,
    "hem": 1646,
    "hen": 1647,
    "heo": 1648,
    "hi": 1649,
    "hia": 1650,
    "hinh": 1651,
    "hiu": 1652,
    "hiên": 1653,
    "hiếm": 1654,
    "hiếp": 1655,
    "hiếu": 1656,
    "hiềm": 1657,
    "hiền": 1658,
    "hiềng": 1659,
    "hiểm": 1660,
    "hiển": 1661,
    "hiểu": 1662,
    "hiện": 1663,
    "hiệp": 1664,
    "hiệu": 1665,
    "ho": 1666,
    "hoa": 1667,
    "hoan": 1668,
    "hoang": 1669,
    "hoay": 1670,
    "hodes": 1671,
    "hoe": 1672,
    "hoi": 1673,
    "hom": 1674,
    "hon": 1675,
    "honda": 1676,
    "hong": 1677,
    "hoà": 1678,
    "hoài": 1679,
    "hoàn": 1680,
    "hoàng": 1681,
    "hoành": 1682,
    "hoá": 1683,
    "hoác": 1684,
    "hoán": 1685,
    "hoáng": 1686,
    "hoãn": 1687,
    "hoén": 1688,
    "hoét": 1689,
    "hoạ": 1690,
    "hoạc": 1691,
    "hoạch": 1692,
    "hoại": 1693,
    "hoạn": 1694,
    "hoạnh": 1695,
    "hoạt": 1696,
    "hoả": 1697,
    "hoải": 1698,
    "hoảng": 1699,
    "hoảnh": 1700,
    "hoắc": 1701,
    "hoắt": 1702,
    "hoẳn": 1703,
    "hoặc": 1704,
    "hoển": 1705,
    "hu": 1706,
    "hui": 1707,
    "hum": 1708,
    "hun": 1709,
    "hung": 1710,
    "huy": 1711,
    "huynh": 1712,
    "huyên": 1713,
    "huyết": 1714,
    "huyện": 1715,
    "huyệt": 1716,
    "huày": 1717,
    "huê": 1718,
    "huênh": 1719,
    "huông": 1720,
    "huých": 1721,
    "huýt": 1722,
    "huơ": 1723,
    "huế": 1724,
    "huếnh": 1725,
    "huề": 1726,
    "huệ": 1727,
    "huống": 1728,
    "huốt": 1729,
    "huột": 1730,
    "huớt": 1731,
    "huờn": 1732,
    "huỡn": 1733,
    "huợn": 1734,
    "huỳnh": 1735,
    "huỵch": 1736,
    "huỷ": 1737,
    "hy": 1738,
    "hà": 1739,
    "hài": 1740,
    "hàm": 1741,
    "hàn": 1742,
    "hàng": 1743,
    "hành": 1744,
    "hào": 1745,
    "há": 1746,
    "hách": 1747,
    "hái": 1748,
    "hám": 1749,
    "hán": 1750,
    "háng": 1751,
    "hánh": 1752,
    "háo": 1753,
    "háp": 1754,
    "hát": 1755,
    "háu": 1756,
    "háy": 1757,
    "hâm": 1758,
    "hân": 1759,
    "hâu": 1760,
    "hây": 1761,
    "hãi": 1762,
    "hãm": 1763,
    "hãn": 1764,
    "hãng": 1765,
    "hão": 1766,
    "hãy": 1767,
    "hè": 1768,
    "hèm": 1769,
    "hèn": 1770,
    "hé": 1771,
    "hén": 1772,
    "héo": 1773,
    "hét": 1774,
    "hê": 1775,
    "hên": 1776,
    "hênh": 1777,
    "hêu": 1778,
    "hì": 1779,
    "hình": 1780,
    "hí": 1781,
    "hính": 1782,
    "hít": 1783,
    "hò": 1784,
    "hòa": 1785,
    "hòi": 1786,
    "hòm": 1787,
    "hòn": 1788,
    "hòng": 1789,
    "hó": 1790,
    "hóa": 1791,
    "hóc": 1792,
    "hói": 1793,
    "hón": 1794,
    "hóng": 1795,
    "hót": 1796,
    "hô": 1797,
    "hôi": 1798,
    "hôm": 1799,
    "hôn": 1800,
    "hông": 1801,
    "hôtel": 1802,
    "hõm": 1803,
    "hù": 1804,
    "hùa": 1805,
    "hùi": 1806,
    "hùm": 1807,
    "hùn": 1808,
    "hùng": 1809,
    "hú": 1810,
    "húc": 1811,
    "húi": 1812,
    "húm": 1813,
    "húng": 1814,
    "húp": 1815,
    "hút": 1816,
    "hăm": 1817,
    "hăn": 1818,
    "hăng": 1819,
    "hũ": 1820,
    "hũm": 1821,
    "hơ": 1822,
    "hơi": 1823,
    "hơn": 1824,
    "hư": 1825,
    "hưng": 1826,
    "hưu": 1827,
    "hương": 1828,
    "hươu": 1829,
    "hước": 1830,
    "hướm": 1831,
    "hướng": 1832,
    "hướt": 1833,
    "hườm": 1834,
    "hường": 1835,
    "hưởi": 1836,
    "hưởn": 1837,
    "hưởng": 1838,
    "hạ": 1839,
    "hạc": 1840,
    "hạch": 1841,
    "hại": 1842,
    "hạn": 1843,
    "hạng": 1844,
    "hạnh": 1845,
    "hạo": 1846,
    "hạp": 1847,
    "hạt": 1848,
    "hả": 1849,
    "hải": 1850,
    "hản": 1851,
    "hảng": 1852,
    "hảnh": 1853,
    "hảo": 1854,
    "hấn": 1855,
    "hấp": 1856,
    "hất": 1857,
    "hấu": 1858,
    "hầm": 1859,
    "hầu": 1860,
    "hầy": 1861,
    "hẩm": 1862,
    "hẩu": 1863,
    "hẫng": 1864,
    "hậm": 1865,
    "hận": 1866,
    "hập": 1867,
    "hậu": 1868,
    "hắc": 1869,
    "hắn": 1870,
    "hắng": 1871,
    "hắt": 1872,
    "hằm": 1873,
    "hằn": 1874,
    "hằng": 1875,
    "hẳm": 1876,
    "hẳn": 1877,
    "hẵng": 1878,
    "hặc": 1879,
    "hẹ": 1880,
    "hẹn": 1881,
    "hẹp": 1882,
    "hẻ": 1883,
    "hẻm": 1884,
    "hẻn": 1885,
    "hẻo": 1886,
    "hếch": 1887,
    "hến": 1888,
    "hết": 1889,
    "hếu": 1890,
    "hề": 1891,
    "hềnh": 1892,
    "hều": 1893,
    "hể": 1894,
    "hển": 1895,
    "hểnh": 1896,
    "hễ": 1897,
    "hệ": 1898,
    "hệch": 1899,
    "hệt": 1900,
    "hệu": 1901,
    "hỉ": 1902,
    "hỉnh": 1903,
    "hị": 1904,
    "hịch": 1905,
    "hịt": 1906,
    "họ": 1907,
    "họa": 1908,
    "học": 1909,
    "họe": 1910,
    "họng": 1911,
    "họp": 1912,
    "hỏ": 1913,
    "hỏa": 1914,
    "hỏi": 1915,
    "hỏng": 1916,
    "hố": 1917,
    "hốc": 1918,
    "hối": 1919,
    "hống": 1920,
    "hốp": 1921,
    "hốt": 1922,
    "hồ": 1923,
    "hồi": 1924,
    "hồm": 1925,
    "hồn": 1926,
    "hồng": 1927,
    "hổ": 1928,
    "hổi": 1929,
    "hổm": 1930,
    "hổn": 1931,
    "hổng": 1932,
    "hỗ": 1933,
    "hỗm": 1934,
    "hỗn": 1935,
    "hộ": 1936,
    "hộc": 1937,
    "hội": 1938,
    "hộp": 1939,
    "hột": 1940,
    "hớ": 1941,
    "hới": 1942,
    "hớn": 1943,
    "hớp": 1944,
    "hớt": 1945,
    "hờ": 1946,
    "hời": 1947,
    "hờm": 1948,
    "hờn": 1949,
    "hở": 1950,
    "hởn": 1951,
    "hỡi": 1952,
    "hỡm": 1953,
    "hợ": 1954,
    "hợi": 1955,
    "hợm": 1956,
    "hợp": 1957,
    "hợt": 1958,
    "hụ": 1959,
    "hục": 1960,
    "hụi": 1961,
    "hụm": 1962,
    "hụp": 1963,
    "hụt": 1964,
    "hủ": 1965,
    "hủi": 1966,
    "hủn": 1967,
    "hủng": 1968,
    "hủy": 1969,
    "hứ": 1970,
    "hứa": 1971,
    "hức": 1972,
    "hứi": 1973,
    "hứng": 1974,
    "hừng": 1975,
    "hử": 1976,
    "hửi": 1977,
    "hửng": 1978,
    "hững": 1979,
    "hữu": 1980,
    "hự": 1981,
    "hực": 1982,
    "i": 1983,
    "ia": 1984,
    "ida": 1985,
    "ido": 1986,
    "idon": 1987,
    "iew": 1988,
    "igno": 1989,
    "ignon": 1990,
    "ignonne": 1991,
    "igô": 1992,
    "igôn": 1993,
    "iii": 1994,
    "ile": 1995,
    "ilippines": 1996,
    "illard": 1997,
    "ilo": 1998,
    "ilon": 1999,
    "ilôga": 2000,
    "ilôgam": 2001,
    "im": 2002,
    "in": 2003,
    "ingo": 2004,
    "inh": 2005,
    "inine": 2006,
    "inéma": 2007,
    "iphone": 2008,
    "isto": 2009,
    "iston": 2010,
    "iu": 2011,
    "ivi": 2012,
    "ière": 2013,
    "ié": 2014,
    "iéng": 2015,
    "iê": 2016,
    "iêm": 2017,
    "iên": 2018,
    "iêng": 2019,
    "iêu": 2020,
    "iêze": 2021,
    "iêzen": 2022,
    "iế": 2023,
    "iếc": 2024,
    "iếm": 2025,
    "iến": 2026,
    "iếng": 2027,
    "iếp": 2028,
    "iết": 2029,
    "iếu": 2030,
    "iề": 2031,
    "iềm": 2032,
    "iền": 2033,
    "iềng": 2034,
    "iều": 2035,
    "iể": 2036,
    "iểm": 2037,
    "iển": 2038,
    "iểng": 2039,
    "iểu": 2040,
    "iễ": 2041,
    "iễm": 2042,
    "iễn": 2043,
    "iễng": 2044,
    "iễu": 2045,
    "iệ": 2046,
    "iệc": 2047,
    "iệm": 2048,
    "iện": 2049,
    "iệng": 2050,
    "iệp": 2051,
    "iệt": 2052,
    "iệu": 2053,
    "j": 2054,
    "jee": 2055,
    "jeep": 2056,
    "k": 2057,
    "ka": 2058,
    "katha": 2059,
    "ke": 2060,
    "kem": 2061,
    "ken": 2062,
    "keng": 2063,
    "keo": 2064,
    "ket": 2065,
    "kg": 2066,
    "kh": 2067,
    "kha": 2068,
    "khai": 2069,
    "kham": 2070,
    "khan": 2071,
    "khang": 2072,
    "khao": 2073,
    "khay": 2074,
    "khe": 2075,
    "khem": 2076,
    "khen": 2077,
    "kheo": 2078,
    "khi": 2079,
    "khinh": 2080,
    "khiu": 2081,
    "khiêm": 2082,
    "khiêng": 2083,
    "khiêu": 2084,
    "khiến": 2085,
    "khiếp": 2086,
    "khiếu": 2087,
    "khiển": 2088,
    "khiễng": 2089,
    "khmer": 2090,
    "kho": 2091,
    "khoa": 2092,
    "khoai": 2093,
    "khoan": 2094,
    "khoang": 2095,
    "khoanh": 2096,
    "khoe": 2097,
    "khoen": 2098,
    "khom": 2099,
    "khoàng": 2100,
    "khoá": 2101,
    "khoác": 2102,
    "khoái": 2103,
    "khoán": 2104,
    "khoáng": 2105,
    "khoát": 2106,
    "khoáy": 2107,
    "khoèo": 2108,
    "khoé": 2109,
    "khoén": 2110,
    "khoét": 2111,
    "khoăn": 2112,
    "khoả": 2113,
    "khoản": 2114,
    "khoảng": 2115,
    "khoảnh": 2116,
    "khoắn": 2117,
    "khoắt": 2118,
    "khoằm": 2119,
    "khoẻ": 2120,
    "khoẻn": 2121,
    "khu": 2122,
    "khua": 2123,
    "khui": 2124,
    "khum": 2125,
    "khung": 2126,
    "khuy": 2127,
    "khuya": 2128,
    "khuyên": 2129,
    "khuyết": 2130,
    "khuân": 2131,
    "khuây": 2132,
    "khuôn": 2133,
    "khuơ": 2134,
    "khuất": 2135,
    "khuấy": 2136,
    "khuẫn": 2137,
    "khuế": 2138,
    "khuều": 2139,
    "khuỳnh": 2140,
    "khuỷnh": 2141,
    "khuỷu": 2142,
    "khà": 2143,
    "khàn": 2144,
    "khàng": 2145,
    "khá": 2146,
    "khác": 2147,
    "khách": 2148,
    "khái": 2149,
    "khám": 2150,
    "khán": 2151,
    "kháng": 2152,
    "khánh": 2153,
    "kháp": 2154,
    "khát": 2155,
    "kháu": 2156,
    "kháy": 2157,
    "khâm": 2158,
    "khân": 2159,
    "khâu": 2160,
    "khè": 2161,
    "khèo": 2162,
    "khém": 2163,
    "khén": 2164,
    "khéo": 2165,
    "khép": 2166,
    "khét": 2167,
    "khê": 2168,
    "khên": 2169,
    "khênh": 2170,
    "khêu": 2171,
    "khì": 2172,
    "khìa": 2173,
    "khí": 2174,
    "khía": 2175,
    "khích": 2176,
    "khín": 2177,
    "khít": 2178,
    "khíu": 2179,
    "khò": 2180,
    "khó": 2181,
    "khóa": 2182,
    "khóc": 2183,
    "khóe": 2184,
    "khói": 2185,
    "khóm": 2186,
    "khô": 2187,
    "khôi": 2188,
    "khôn": 2189,
    "không": 2190,
    "khù": 2191,
    "khùng": 2192,
    "khú": 2193,
    "khúc": 2194,
    "khúm": 2195,
    "khăn": 2196,
    "khăng": 2197,
    "khũ": 2198,
    "khơ": 2199,
    "khơi": 2200,
    "khư": 2201,
    "khươi": 2202,
    "khươn": 2203,
    "khướt": 2204,
    "khướu": 2205,
    "khượi": 2206,
    "khạc": 2207,
    "khạng": 2208,
    "khạo": 2209,
    "khạp": 2210,
    "khả": 2211,
    "khải": 2212,
    "khảm": 2213,
    "khản": 2214,
    "khảnh": 2215,
    "khảo": 2216,
    "khảy": 2217,
    "khấm": 2218,
    "khấn": 2219,
    "khấp": 2220,
    "khất": 2221,
    "khấu": 2222,
    "khẩm": 2223,
    "khẩn": 2224,
    "khẩu": 2225,
    "khậm": 2226,
    "khập": 2227,
    "khật": 2228,
    "khắc": 2229,
    "khắm": 2230,
    "khắn": 2231,
    "khắng": 2232,
    "khắp": 2233,
    "khắt": 2234,
    "khẳm": 2235,
    "khẳn": 2236,
    "khẳng": 2237,
    "khặc": 2238,
    "khẹc": 2239,
    "khẻ": 2240,
    "khẽ": 2241,
    "khế": 2242,
    "khến": 2243,
    "khề": 2244,
    "khều": 2245,
    "khểnh": 2246,
    "khệ": 2247,
    "khệch": 2248,
    "khện": 2249,
    "khệnh": 2250,
    "khệu": 2251,
    "khỉ": 2252,
    "khỉnh": 2253,
    "khị": 2254,
    "khịa": 2255,
    "khọm": 2256,
    "khọt": 2257,
    "khỏ": 2258,
    "khỏa": 2259,
    "khỏe": 2260,
    "khỏi": 2261,
    "khỏng": 2262,
    "khố": 2263,
    "khốc": 2264,
    "khối": 2265,
    "khốn": 2266,
    "khống": 2267,
    "khổ": 2268,
    "khổng": 2269,
    "khới": 2270,
    "khớp": 2271,
    "khờ": 2272,
    "khởi": 2273,
    "khụ": 2274,
    "khục": 2275,
    "khủng": 2276,
    "khứ": 2277,
    "khứa": 2278,
    "khứng": 2279,
    "khừ": 2280,
    "khừng": 2281,
    "khựng": 2282,
    "ki": 2283,
    "kia": 2284,
    "kilôgam": 2285,
    "kim": 2286,
    "kinh": 2287,
    "kiên": 2288,
    "kiêng": 2289,
    "kiêu": 2290,
    "kiếm": 2291,
    "kiến": 2292,
    "kiếng": 2293,
    "kiếp": 2294,
    "kiết": 2295,
    "kiềm": 2296,
    "kiềng": 2297,
    "kiều": 2298,
    "kiểm": 2299,
    "kiểng": 2300,
    "kiểu": 2301,
    "kiễng": 2302,
    "kiệm": 2303,
    "kiện": 2304,
    "kiệt": 2305,
    "kiệu": 2306,
    "kohler": 2307,
    "kè": 2308,
    "kèm": 2309,
    "kèn": 2310,
    "kèo": 2311,
    "ké": 2312,
    "kém": 2313,
    "kén": 2314,
    "kéo": 2315,
    "kép": 2316,
    "két": 2317,
    "kê": 2318,
    "kên": 2319,
    "kênh": 2320,
    "kêu": 2321,
    "kì": 2322,
    "kìa": 2323,
    "kìm": 2324,
    "kìn": 2325,
    "kình": 2326,
    "kí": 2327,
    "kía": 2328,
    "kích": 2329,
    "kín": 2330,
    "kính": 2331,
    "kíp": 2332,
    "kít": 2333,
    "ký": 2334,
    "kĩ": 2335,
    "kĩnh": 2336,
    "kẹ": 2337,
    "kẹo": 2338,
    "kẹp": 2339,
    "kẹt": 2340,
    "kẻ": 2341,
    "kẻng": 2342,
    "kẻo": 2343,
    "kẽ": 2344,
    "kẽm": 2345,
    "kế": 2346,
    "kếp": 2347,
    "kết": 2348,
    "kếu": 2349,
    "kề": 2350,
    "kềm": 2351,
    "kềng": 2352,
    "kềnh": 2353,
    "kể": 2354,
    "kệ": 2355,
    "kệch": 2356,
    "kỉ": 2357,
    "kỉa": 2358,
    "kỉnh": 2359,
    "kị": 2360,
    "kịa": 2361,
    "kịch": 2362,
    "kịp": 2363,
    "kịt": 2364,
    "kỳ": 2365,
    "kỵ": 2366,
    "kỷ": 2367,
    "kỹ": 2368,
    "l": 2369,
    "la": 2370,
    "lai": 2371,
    "lam": 2372,
    "lan": 2373,
    "lang": 2374,
    "lanh": 2375,
    "lanto": 2376,
    "lanton": 2377,
    "lao": 2378,
    "laptop": 2379,
    "lau": 2380,
    "lay": 2381,
    "le": 2382,
    "lem": 2383,
    "len": 2384,
    "leng": 2385,
    "leo": 2386,
    "li": 2387,
    "lia": 2388,
    "lim": 2389,
    "lin": 2390,
    "linh": 2391,
    "lip": 2392,
    "liu": 2393,
    "liên": 2394,
    "liêu": 2395,
    "liếc": 2396,
    "liếm": 2397,
    "liến": 2398,
    "liếng": 2399,
    "liếp": 2400,
    "liếu": 2401,
    "liềm": 2402,
    "liền": 2403,
    "liều": 2404,
    "liểm": 2405,
    "liểng": 2406,
    "liễm": 2407,
    "liễn": 2408,
    "liễu": 2409,
    "liệm": 2410,
    "liệng": 2411,
    "liệt": 2412,
    "liệu": 2413,
    "llu": 2414,
    "lo": 2415,
    "loa": 2416,
    "loang": 2417,
    "loanh": 2418,
    "loay": 2419,
    "loc": 2420,
    "local": 2421,
    "loe": 2422,
    "loi": 2423,
    "lom": 2424,
    "lon": 2425,
    "long": 2426,
    "loà": 2427,
    "loài": 2428,
    "loàng": 2429,
    "loác": 2430,
    "loáng": 2431,
    "loát": 2432,
    "loã": 2433,
    "loãng": 2434,
    "loè": 2435,
    "loé": 2436,
    "loét": 2437,
    "loăng": 2438,
    "loại": 2439,
    "loạn": 2440,
    "loạng": 2441,
    "loạt": 2442,
    "loảng": 2443,
    "loằng": 2444,
    "loẹt": 2445,
    "lqt": 2446,
    "lu": 2447,
    "lua": 2448,
    "lui": 2449,
    "lum": 2450,
    "lung": 2451,
    "luy": 2452,
    "luyên": 2453,
    "luyến": 2454,
    "luyện": 2455,
    "luôm": 2456,
    "luôn": 2457,
    "luông": 2458,
    "luých": 2459,
    "luýnh": 2460,
    "luẩn": 2461,
    "luận": 2462,
    "luật": 2463,
    "luốc": 2464,
    "luống": 2465,
    "luốt": 2466,
    "luồn": 2467,
    "luồng": 2468,
    "luổi": 2469,
    "luỗng": 2470,
    "luộc": 2471,
    "luộm": 2472,
    "luột": 2473,
    "luỹ": 2474,
    "ly": 2475,
    "là": 2476,
    "lài": 2477,
    "làm": 2478,
    "làn": 2479,
    "làng": 2480,
    "lành": 2481,
    "lào": 2482,
    "làu": 2483,
    "lá": 2484,
    "lác": 2485,
    "lách": 2486,
    "lái": 2487,
    "lám": 2488,
    "láng": 2489,
    "lánh": 2490,
    "láo": 2491,
    "láp": 2492,
    "lát": 2493,
    "láu": 2494,
    "láy": 2495,
    "lâm": 2496,
    "lân": 2497,
    "lâng": 2498,
    "lâu": 2499,
    "lây": 2500,
    "lã": 2501,
    "lãi": 2502,
    "lãng": 2503,
    "lãnh": 2504,
    "lão": 2505,
    "lãy": 2506,
    "lè": 2507,
    "lèm": 2508,
    "lèn": 2509,
    "lèo": 2510,
    "lé": 2511,
    "léc": 2512,
    "légume": 2513,
    "lém": 2514,
    "lén": 2515,
    "léo": 2516,
    "lép": 2517,
    "lét": 2518,
    "lê": 2519,
    "lên": 2520,
    "lênh": 2521,
    "lêu": 2522,
    "lì": 2523,
    "lìa": 2524,
    "lìm": 2525,
    "lình": 2526,
    "lìu": 2527,
    "lí": 2528,
    "lích": 2529,
    "lính": 2530,
    "líp": 2531,
    "lít": 2532,
    "líu": 2533,
    "lò": 2534,
    "lòa": 2535,
    "lòe": 2536,
    "lòi": 2537,
    "lòm": 2538,
    "lòn": 2539,
    "lòng": 2540,
    "ló": 2541,
    "lóc": 2542,
    "lóe": 2543,
    "lói": 2544,
    "lóm": 2545,
    "lón": 2546,
    "lóng": 2547,
    "lóp": 2548,
    "lót": 2549,
    "lô": 2550,
    "lôi": 2551,
    "lôm": 2552,
    "lông": 2553,
    "lõ": 2554,
    "lõa": 2555,
    "lõi": 2556,
    "lõm": 2557,
    "lõng": 2558,
    "lù": 2559,
    "lùa": 2560,
    "lùi": 2561,
    "lùm": 2562,
    "lùn": 2563,
    "lùng": 2564,
    "lú": 2565,
    "lúa": 2566,
    "lúc": 2567,
    "lúi": 2568,
    "lúm": 2569,
    "lún": 2570,
    "lúng": 2571,
    "lúp": 2572,
    "lút": 2573,
    "lý": 2574,
    "lăm": 2575,
    "lăn": 2576,
    "lăng": 2577,
    "lĩa": 2578,
    "lĩnh": 2579,
    "lũ": 2580,
    "lũa": 2581,
    "lũi": 2582,
    "lũm": 2583,
    "lũn": 2584,
    "lũng": 2585,
    "lơ": 2586,
    "lơi": 2587,
    "lơn": 2588,
    "lư": 2589,
    "lưa": 2590,
    "lưng": 2591,
    "lưu": 2592,
    "lươn": 2593,
    "lương": 2594,
    "lưới": 2595,
    "lướt": 2596,
    "lướu": 2597,
    "lười": 2598,
    "lườm": 2599,
    "lườn": 2600,
    "lường": 2601,
    "lưởi": 2602,
    "lưởng": 2603,
    "lưỡi": 2604,
    "lưỡng": 2605,
    "lược": 2606,
    "lượi": 2607,
    "lượm": 2608,
    "lượn": 2609,
    "lượng": 2610,
    "lượt": 2611,
    "lạ": 2612,
    "lạc": 2613,
    "lạch": 2614,
    "lại": 2615,
    "lạm": 2616,
    "lạn": 2617,
    "lạng": 2618,
    "lạnh": 2619,
    "lạo": 2620,
    "lạp": 2621,
    "lạt": 2622,
    "lạu": 2623,
    "lạy": 2624,
    "lả": 2625,
    "lải": 2626,
    "lảm": 2627,
    "lảng": 2628,
    "lảo": 2629,
    "lảy": 2630,
    "lấc": 2631,
    "lấm": 2632,
    "lấn": 2633,
    "lấp": 2634,
    "lất": 2635,
    "lấu": 2636,
    "lấy": 2637,
    "lầm": 2638,
    "lần": 2639,
    "lầu": 2640,
    "lầy": 2641,
    "lẩm": 2642,
    "lẩn": 2643,
    "lẩu": 2644,
    "lẩy": 2645,
    "lẫm": 2646,
    "lẫn": 2647,
    "lẫy": 2648,
    "lận": 2649,
    "lập": 2650,
    "lật": 2651,
    "lậu": 2652,
    "lậy": 2653,
    "lắc": 2654,
    "lắm": 2655,
    "lắn": 2656,
    "lắng": 2657,
    "lắp": 2658,
    "lắt": 2659,
    "lằm": 2660,
    "lằn": 2661,
    "lằng": 2662,
    "lẳn": 2663,
    "lẳng": 2664,
    "lẵn": 2665,
    "lặc": 2666,
    "lặm": 2667,
    "lặn": 2668,
    "lặng": 2669,
    "lặp": 2670,
    "lặt": 2671,
    "lẹ": 2672,
    "lẹm": 2673,
    "lẹo": 2674,
    "lẹp": 2675,
    "lẹt": 2676,
    "lẻ": 2677,
    "lẻm": 2678,
    "lẻn": 2679,
    "lẻo": 2680,
    "lẽ": 2681,
    "lẽm": 2682,
    "lẽn": 2683,
    "lẽo": 2684,
    "lếch": 2685,
    "lếnh": 2686,
    "lết": 2687,
    "lếu": 2688,
    "lề": 2689,
    "lền": 2690,
    "lềnh": 2691,
    "lều": 2692,
    "lể": 2693,
    "lểnh": 2694,
    "lểu": 2695,
    "lễ": 2696,
    "lễnh": 2697,
    "lệ": 2698,
    "lệch": 2699,
    "lệnh": 2700,
    "lệt": 2701,
    "lệu": 2702,
    "lỉa": 2703,
    "lỉm": 2704,
    "lỉnh": 2705,
    "lỉu": 2706,
    "lị": 2707,
    "lịa": 2708,
    "lịch": 2709,
    "lịm": 2710,
    "lịnh": 2711,
    "lịt": 2712,
    "lịu": 2713,
    "lọ": 2714,
    "lọc": 2715,
    "lọi": 2716,
    "lọm": 2717,
    "lọn": 2718,
    "lọng": 2719,
    "lọt": 2720,
    "lỏa": 2721,
    "lỏi": 2722,
    "lỏm": 2723,
    "lỏn": 2724,
    "lỏng": 2725,
    "lố": 2726,
    "lốc": 2727,
    "lối": 2728,
    "lốm": 2729,
    "lốp": 2730,
    "lốt": 2731,
    "lồ": 2732,
    "lồi": 2733,
    "lồm": 2734,
    "lồng": 2735,
    "lổ": 2736,
    "lổm": 2737,
    "lổn": 2738,
    "lổng": 2739,
    "lỗ": 2740,
    "lỗi": 2741,
    "lộ": 2742,
    "lộc": 2743,
    "lội": 2744,
    "lộn": 2745,
    "lộng": 2746,
    "lộp": 2747,
    "lột": 2748,
    "lớ": 2749,
    "lới": 2750,
    "lớn": 2751,
    "lớp": 2752,
    "lớt": 2753,
    "lờ": 2754,
    "lời": 2755,
    "lờm": 2756,
    "lờn": 2757,
    "lở": 2758,
    "lởi": 2759,
    "lởm": 2760,
    "lởn": 2761,
    "lỡ": 2762,
    "lợ": 2763,
    "lợi": 2764,
    "lợm": 2765,
    "lợn": 2766,
    "lợp": 2767,
    "lợt": 2768,
    "lụ": 2769,
    "lụa": 2770,
    "lục": 2771,
    "lụi": 2772,
    "lụm": 2773,
    "lụn": 2774,
    "lụng": 2775,
    "lụp": 2776,
    "lụt": 2777,
    "lụy": 2778,
    "lủa": 2779,
    "lủi": 2780,
    "lủm": 2781,
    "lủn": 2782,
    "lủng": 2783,
    "lứ": 2784,
    "lứa": 2785,
    "lức": 2786,
    "lứng": 2787,
    "lứt": 2788,
    "lừ": 2789,
    "lừa": 2790,
    "lừng": 2791,
    "lử": 2792,
    "lửa": 2793,
    "lửng": 2794,
    "lữa": 2795,
    "lững": 2796,
    "lự": 2797,
    "lựa": 2798,
    "lực": 2799,
    "lựng": 2800,
    "lựu": 2801,
    "lỳ": 2802,
    "m": 2803,
    "ma": 2804,
    "mai": 2805,
    "main": 2806,
    "man": 2807,
    "manchon": 2808,
    "mang": 2809,
    "manger": 2810,
    "manh": 2811,
    "manila": 2812,
    "maradona": 2813,
    "maritimes": 2814,
    "masse": 2815,
    "mastic": 2816,
    "matelot": 2817,
    "matit": 2818,
    "mau": 2819,
    "may": 2820,
    "mc": 2821,
    "me": 2822,
    "mem": 2823,
    "men": 2824,
    "meo": 2825,
    "mer": 2826,
    "merci": 2827,
    "messageries": 2828,
    "mi": 2829,
    "mignon": 2830,
    "mignonne": 2831,
    "minh": 2832,
    "miên": 2833,
    "miêng": 2834,
    "miêu": 2835,
    "miến": 2836,
    "miếng": 2837,
    "miết": 2838,
    "miếu": 2839,
    "miền": 2840,
    "miểng": 2841,
    "miễn": 2842,
    "miễu": 2843,
    "miệng": 2844,
    "miệt": 2845,
    "mnd": 2846,
    "mo": 2847,
    "moa": 2848,
    "modèle": 2849,
    "moi": 2850,
    "mon": 2851,
    "mong": 2852,
    "mooc": 2853,
    "mort": 2854,
    "mortier": 2855,
    "mouchoir": 2856,
    "moóc": 2857,
    "mu": 2858,
    "mua": 2859,
    "mui": 2860,
    "mun": 2861,
    "mung": 2862,
    "muôi": 2863,
    "muôn": 2864,
    "muối": 2865,
    "muốn": 2866,
    "muống": 2867,
    "muồi": 2868,
    "muồng": 2869,
    "muỗi": 2870,
    "muỗng": 2871,
    "muội": 2872,
    "muộn": 2873,
    "my": 2874,
    "mà": 2875,
    "mài": 2876,
    "màn": 2877,
    "màng": 2878,
    "mành": 2879,
    "mào": 2880,
    "màu": 2881,
    "mày": 2882,
    "má": 2883,
    "mác": 2884,
    "mách": 2885,
    "mái": 2886,
    "mám": 2887,
    "mán": 2888,
    "máng": 2889,
    "mánh": 2890,
    "máo": 2891,
    "mát": 2892,
    "máu": 2893,
    "máy": 2894,
    "mâm": 2895,
    "mân": 2896,
    "mâu": 2897,
    "mây": 2898,
    "mã": 2899,
    "mãi": 2900,
    "mãn": 2901,
    "mãng": 2902,
    "mãnh": 2903,
    "mão": 2904,
    "mè": 2905,
    "mèn": 2906,
    "mèng": 2907,
    "mèo": 2908,
    "mé": 2909,
    "méc": 2910,
    "mém": 2911,
    "mén": 2912,
    "méo": 2913,
    "mép": 2914,
    "mét": 2915,
    "mê": 2916,
    "mên": 2917,
    "mênh": 2918,
    "mì": 2919,
    "mìn": 2920,
    "mình": 2921,
    "mí": 2922,
    "mía": 2923,
    "mích": 2924,
    "mím": 2925,
    "mín": 2926,
    "mít": 2927,
    "mò": 2928,
    "mòi": 2929,
    "mòn": 2930,
    "mòng": 2931,
    "mó": 2932,
    "móc": 2933,
    "mói": 2934,
    "móm": 2935,
    "món": 2936,
    "móng": 2937,
    "móp": 2938,
    "mót": 2939,
    "mô": 2940,
    "môi": 2941,
    "môn": 2942,
    "mông": 2943,
    "mõ": 2944,
    "mõm": 2945,
    "mù": 2946,
    "mùa": 2947,
    "mùi": 2948,
    "mùn": 2949,
    "mùng": 2950,
    "mú": 2951,
    "múa": 2952,
    "múc": 2953,
    "múi": 2954,
    "múm": 2955,
    "mún": 2956,
    "múng": 2957,
    "múp": 2958,
    "mút": 2959,
    "măm": 2960,
    "măn": 2961,
    "măng": 2962,
    "mĩm": 2963,
    "mĩu": 2964,
    "mũ": 2965,
    "mũi": 2966,
    "mũm": 2967,
    "mũng": 2968,
    "mơ": 2969,
    "mơi": 2970,
    "mơn": 2971,
    "mưa": 2972,
    "mưu": 2973,
    "mươi": 2974,
    "mươn": 2975,
    "mương": 2976,
    "mước": 2977,
    "mướn": 2978,
    "mướp": 2979,
    "mướt": 2980,
    "mười": 2981,
    "mược": 2982,
    "mượn": 2983,
    "mượt": 2984,
    "mạ": 2985,
    "mạc": 2986,
    "mạch": 2987,
    "mại": 2988,
    "mạn": 2989,
    "mạng": 2990,
    "mạnh": 2991,
    "mạo": 2992,
    "mạp": 2993,
    "mạt": 2994,
    "mạy": 2995,
    "mả": 2996,
    "mải": 2997,
    "mản": 2998,
    "mảng": 2999,
    "mảnh": 3000,
    "mảy": 3001,
    "mấp": 3002,
    "mất": 3003,
    "mấu": 3004,
    "mấy": 3005,
    "mầm": 3006,
    "mần": 3007,
    "mầng": 3008,
    "mầu": 3009,
    "mầy": 3010,
    "mẩm": 3011,
    "mẩn": 3012,
    "mẩu": 3013,
    "mẩy": 3014,
    "mẫm": 3015,
    "mẫn": 3016,
    "mẫu": 3017,
    "mận": 3018,
    "mập": 3019,
    "mật": 3020,
    "mậu": 3021,
    "mậy": 3022,
    "mắc": 3023,
    "mắm": 3024,
    "mắn": 3025,
    "mắng": 3026,
    "mắp": 3027,
    "mắt": 3028,
    "mằn": 3029,
    "mặc": 3030,
    "mặn": 3031,
    "mặt": 3032,
    "mẹ": 3033,
    "mẹc": 3034,
    "mẹo": 3035,
    "mẹp": 3036,
    "mẹt": 3037,
    "mẻ": 3038,
    "mẻm": 3039,
    "mẻo": 3040,
    "mẽ": 3041,
    "mếch": 3042,
    "mến": 3043,
    "mết": 3044,
    "mếu": 3045,
    "mề": 3046,
    "mềm": 3047,
    "mền": 3048,
    "mều": 3049,
    "mễ": 3050,
    "mệnh": 3051,
    "mệt": 3052,
    "mỉ": 3053,
    "mỉa": 3054,
    "mỉm": 3055,
    "mỉn": 3056,
    "mỉnh": 3057,
    "mị": 3058,
    "mịch": 3059,
    "mịn": 3060,
    "mịt": 3061,
    "mịu": 3062,
    "mọ": 3063,
    "mọc": 3064,
    "mọi": 3065,
    "mọn": 3066,
    "mọng": 3067,
    "mọp": 3068,
    "mọt": 3069,
    "mỏ": 3070,
    "mỏi": 3071,
    "mỏn": 3072,
    "mỏng": 3073,
    "mốc": 3074,
    "mối": 3075,
    "mống": 3076,
    "mốp": 3077,
    "mốt": 3078,
    "mồ": 3079,
    "mồi": 3080,
    "mồm": 3081,
    "mồn": 3082,
    "mồng": 3083,
    "mổ": 3084,
    "mỗ": 3085,
    "mỗi": 3086,
    "mộ": 3087,
    "mộc": 3088,
    "mội": 3089,
    "mộng": 3090,
    "một": 3091,
    "mớ": 3092,
    "mới": 3093,
    "mớm": 3094,
    "mớp": 3095,
    "mớt": 3096,
    "mờ": 3097,
    "mời": 3098,
    "mở": 3099,
    "mởn": 3100,
    "mỡ": 3101,
    "mợ": 3102,
    "mợi": 3103,
    "mụ": 3104,
    "mục": 3105,
    "mụn": 3106,
    "mụp": 3107,
    "mụt": 3108,
    "mủ": 3109,
    "mủi": 3110,
    "mủm": 3111,
    "mủn": 3112,
    "mủng": 3113,
    "mứa": 3114,
    "mức": 3115,
    "mứng": 3116,
    "mứt": 3117,
    "mừ": 3118,
    "mừng": 3119,
    "mửa": 3120,
    "mửng": 3121,
    "mực": 3122,
    "mỹ": 3123,
    "n": 3124,
    "na": 3125,
    "nai": 3126,
    "nail": 3127,
    "nam": 3128,
    "nan": 3129,
    "nang": 3130,
    "nanh": 3131,
    "nao": 3132,
    "nay": 3133,
    "ne": 3134,
    "nem": 3135,
    "nen": 3136,
    "neo": 3137,
    "ng": 3138,
    "nga": 3139,
    "ngan": 3140,
    "ngang": 3141,
    "ngao": 3142,
    "ngay": 3143,
    "ngh": 3144,
    "nghe": 3145,
    "nghen": 3146,
    "nghi": 3147,
    "nghinh": 3148,
    "nghiêm": 3149,
    "nghiêng": 3150,
    "nghiến": 3151,
    "nghiền": 3152,
    "nghiềng": 3153,
    "nghiệm": 3154,
    "nghiện": 3155,
    "nghiệp": 3156,
    "nghiệt": 3157,
    "nghè": 3158,
    "nghèo": 3159,
    "nghé": 3160,
    "nghén": 3161,
    "nghét": 3162,
    "nghê": 3163,
    "nghênh": 3164,
    "nghêu": 3165,
    "nghìn": 3166,
    "nghí": 3167,
    "nghía": 3168,
    "nghĩ": 3169,
    "nghĩa": 3170,
    "nghĩnh": 3171,
    "nghẹ": 3172,
    "nghẹn": 3173,
    "nghẹo": 3174,
    "nghẹt": 3175,
    "nghẻn": 3176,
    "nghẻo": 3177,
    "nghẽn": 3178,
    "nghẽo": 3179,
    "nghếch": 3180,
    "nghến": 3181,
    "nghề": 3182,
    "nghều": 3183,
    "nghểnh": 3184,
    "nghễ": 3185,
    "nghễn": 3186,
    "nghễnh": 3187,
    "nghễu": 3188,
    "nghệ": 3189,
    "nghệch": 3190,
    "nghện": 3191,
    "nghệu": 3192,
    "nghỉ": 3193,
    "nghỉnh": 3194,
    "nghị": 3195,
    "nghịch": 3196,
    "nghịt": 3197,
    "nghịu": 3198,
    "ngo": 3199,
    "ngoa": 3200,
    "ngoai": 3201,
    "ngoam": 3202,
    "ngoan": 3203,
    "ngoanh": 3204,
    "ngoay": 3205,
    "ngoe": 3206,
    "ngoem": 3207,
    "ngoeo": 3208,
    "ngoi": 3209,
    "ngon": 3210,
    "ngoài": 3211,
    "ngoàm": 3212,
    "ngoày": 3213,
    "ngoác": 3214,
    "ngoách": 3215,
    "ngoái": 3216,
    "ngoáp": 3217,
    "ngoáy": 3218,
    "ngoãn": 3219,
    "ngoèn": 3220,
    "ngoèo": 3221,
    "ngoé": 3222,
    "ngoém": 3223,
    "ngoéo": 3224,
    "ngoét": 3225,
    "ngoên": 3226,
    "ngoăn": 3227,
    "ngoăng": 3228,
    "ngoạc": 3229,
    "ngoạch": 3230,
    "ngoại": 3231,
    "ngoạm": 3232,
    "ngoạp": 3233,
    "ngoạy": 3234,
    "ngoải": 3235,
    "ngoảnh": 3236,
    "ngoảy": 3237,
    "ngoắc": 3238,
    "ngoắt": 3239,
    "ngoằn": 3240,
    "ngoằng": 3241,
    "ngoặc": 3242,
    "ngoặp": 3243,
    "ngoặt": 3244,
    "ngoẹo": 3245,
    "ngoẻm": 3246,
    "ngoẻo": 3247,
    "ngoệch": 3248,
    "ngu": 3249,
    "ngui": 3250,
    "nguy": 3251,
    "nguyên": 3252,
    "nguyền": 3253,
    "nguyễn": 3254,
    "nguyện": 3255,
    "nguyệt": 3256,
    "nguây": 3257,
    "nguôi": 3258,
    "nguých": 3259,
    "nguýt": 3260,
    "nguơn": 3261,
    "nguẩy": 3262,
    "nguậy": 3263,
    "nguể": 3264,
    "nguệch": 3265,
    "nguồn": 3266,
    "nguội": 3267,
    "nguỵ": 3268,
    "ngà": 3269,
    "ngàn": 3270,
    "ngàng": 3271,
    "ngành": 3272,
    "ngào": 3273,
    "ngàu": 3274,
    "ngày": 3275,
    "ngác": 3276,
    "ngách": 3277,
    "ngái": 3278,
    "ngán": 3279,
    "ngáng": 3280,
    "ngánh": 3281,
    "ngáo": 3282,
    "ngáp": 3283,
    "ngát": 3284,
    "ngáy": 3285,
    "ngâm": 3286,
    "ngân": 3287,
    "ngâu": 3288,
    "ngây": 3289,
    "ngã": 3290,
    "ngãi": 3291,
    "ngãng": 3292,
    "ngò": 3293,
    "ngòi": 3294,
    "ngòm": 3295,
    "ngó": 3296,
    "ngóc": 3297,
    "ngói": 3298,
    "ngóm": 3299,
    "ngón": 3300,
    "ngóng": 3301,
    "ngóp": 3302,
    "ngót": 3303,
    "ngô": 3304,
    "ngôi": 3305,
    "ngôn": 3306,
    "ngông": 3307,
    "ngõ": 3308,
    "ngõng": 3309,
    "ngù": 3310,
    "ngùn": 3311,
    "ngùng": 3312,
    "ngúc": 3313,
    "ngún": 3314,
    "ngút": 3315,
    "ngăm": 3316,
    "ngăn": 3317,
    "ngũ": 3318,
    "ngơ": 3319,
    "ngơi": 3320,
    "ngơm": 3321,
    "ngư": 3322,
    "ngưng": 3323,
    "ngươi": 3324,
    "ngước": 3325,
    "người": 3326,
    "ngưởng": 3327,
    "ngưỡng": 3328,
    "ngược": 3329,
    "ngượng": 3330,
    "ngạc": 3331,
    "ngại": 3332,
    "ngạnh": 3333,
    "ngạo": 3334,
    "ngạp": 3335,
    "ngạt": 3336,
    "ngạy": 3337,
    "ngả": 3338,
    "ngải": 3339,
    "ngấm": 3340,
    "ngấn": 3341,
    "ngấp": 3342,
    "ngất": 3343,
    "ngấu": 3344,
    "ngấy": 3345,
    "ngầm": 3346,
    "ngần": 3347,
    "ngầu": 3348,
    "ngầy": 3349,
    "ngẩm": 3350,
    "ngẩn": 3351,
    "ngẩng": 3352,
    "ngẫu": 3353,
    "ngậm": 3354,
    "ngập": 3355,
    "ngật": 3356,
    "ngậu": 3357,
    "ngậy": 3358,
    "ngắc": 3359,
    "ngắm": 3360,
    "ngắn": 3361,
    "ngắnn": 3362,
    "ngắp": 3363,
    "ngắt": 3364,
    "ngằng": 3365,
    "ngặt": 3366,
    "ngếch": 3367,
    "ngọ": 3368,
    "ngọc": 3369,
    "ngọn": 3370,
    "ngọng": 3371,
    "ngọt": 3372,
    "ngỏ": 3373,
    "ngỏm": 3374,
    "ngỏn": 3375,
    "ngố": 3376,
    "ngốc": 3377,
    "ngốn": 3378,
    "ngốt": 3379,
    "ngồi": 3380,
    "ngồm": 3381,
    "ngồn": 3382,
    "ngồng": 3383,
    "ngổ": 3384,
    "ngổn": 3385,
    "ngỗ": 3386,
    "ngỗng": 3387,
    "ngộ": 3388,
    "ngộc": 3389,
    "ngộn": 3390,
    "ngộp": 3391,
    "ngột": 3392,
    "ngớ": 3393,
    "ngớm": 3394,
    "ngớn": 3395,
    "ngớp": 3396,
    "ngớt": 3397,
    "ngờ": 3398,
    "ngời": 3399,
    "ngờm": 3400,
    "ngởn": 3401,
    "ngỡ": 3402,
    "ngỡi": 3403,
    "ngợ": 3404,
    "ngợi": 3405,
    "ngợm": 3406,
    "ngợn": 3407,
    "ngợp": 3408,
    "ngụa": 3409,
    "ngục": 3410,
    "ngụm": 3411,
    "ngụn": 3412,
    "ngụp": 3413,
    "ngụt": 3414,
    "ngụy": 3415,
    "ngủ": 3416,
    "ngủi": 3417,
    "ngủm": 3418,
    "ngủn": 3419,
    "ngứ": 3420,
    "ngứa": 3421,
    "ngừ": 3422,
    "ngừa": 3423,
    "ngừng": 3424,
    "ngửa": 3425,
    "ngửi": 3426,
    "ngửng": 3427,
    "ngữ": 3428,
    "ngựa": 3429,
    "ngực": 3430,
    "nh": 3431,
    "nha": 3432,
    "nhai": 3433,
    "nham": 3434,
    "nhan": 3435,
    "nhang": 3436,
    "nhanh": 3437,
    "nhao": 3438,
    "nhau": 3439,
    "nhay": 3440,
    "nhe": 3441,
    "nhem": 3442,
    "nhen": 3443,
    "nheo": 3444,
    "nhi": 3445,
    "nhiu": 3446,
    "nhiên": 3447,
    "nhiêu": 3448,
    "nhiếc": 3449,
    "nhiến": 3450,
    "nhiều": 3451,
    "nhiễm": 3452,
    "nhiễn": 3453,
    "nhiễu": 3454,
    "nhiệc": 3455,
    "nhiệm": 3456,
    "nhiệt": 3457,
    "nho": 3458,
    "nhoay": 3459,
    "nhoi": 3460,
    "nhom": 3461,
    "nhon": 3462,
    "nhong": 3463,
    "nhoàm": 3464,
    "nhoá": 3465,
    "nhoáng": 3466,
    "nhoét": 3467,
    "nhoẹt": 3468,
    "nhoẻn": 3469,
    "nhu": 3470,
    "nhui": 3471,
    "nhum": 3472,
    "nhung": 3473,
    "nhuyễn": 3474,
    "nhuận": 3475,
    "nhuế": 3476,
    "nhuệ": 3477,
    "nhuốc": 3478,
    "nhuốp": 3479,
    "nhà": 3480,
    "nhài": 3481,
    "nhàm": 3482,
    "nhàn": 3483,
    "nhàng": 3484,
    "nhành": 3485,
    "nhào": 3486,
    "nhàu": 3487,
    "nhá": 3488,
    "nhác": 3489,
    "nhách": 3490,
    "nhái": 3491,
    "nhám": 3492,
    "nháng": 3493,
    "nhánh": 3494,
    "nháo": 3495,
    "nháp": 3496,
    "nhát": 3497,
    "nháu": 3498,
    "nháy": 3499,
    "nhâm": 3500,
    "nhân": 3501,
    "nhâng": 3502,
    "nhây": 3503,
    "nhã": 3504,
    "nhãi": 3505,
    "nhãn": 3506,
    "nhãng": 3507,
    "nhão": 3508,
    "nhè": 3509,
    "nhèm": 3510,
    "nhèo": 3511,
    "nhé": 3512,
    "nhém": 3513,
    "nhéo": 3514,
    "nhép": 3515,
    "nhét": 3516,
    "nhê": 3517,
    "nhì": 3518,
    "nhìn": 3519,
    "nhí": 3520,
    "nhía": 3521,
    "nhích": 3522,
    "nhím": 3523,
    "nhín": 3524,
    "nhíp": 3525,
    "nhít": 3526,
    "nhíu": 3527,
    "nhò": 3528,
    "nhòe": 3529,
    "nhòm": 3530,
    "nhòng": 3531,
    "nhó": 3532,
    "nhóc": 3533,
    "nhói": 3534,
    "nhóm": 3535,
    "nhón": 3536,
    "nhóng": 3537,
    "nhóp": 3538,
    "nhót": 3539,
    "nhô": 3540,
    "nhôm": 3541,
    "nhôn": 3542,
    "nhông": 3543,
    "nhõi": 3544,
    "nhõn": 3545,
    "nhõng": 3546,
    "nhùi": 3547,
    "nhùng": 3548,
    "nhú": 3549,
    "nhúa": 3550,
    "nhúc": 3551,
    "nhúi": 3552,
    "nhúm": 3553,
    "nhún": 3554,
    "nhúng": 3555,
    "nhút": 3556,
    "nhăm": 3557,
    "nhăn": 3558,
    "nhăng": 3559,
    "nhĩ": 3560,
    "nhĩn": 3561,
    "nhũ": 3562,
    "nhũi": 3563,
    "nhũn": 3564,
    "nhũng": 3565,
    "nhơ": 3566,
    "nhơm": 3567,
    "nhơn": 3568,
    "như": 3569,
    "nhưn": 3570,
    "nhưng": 3571,
    "nhương": 3572,
    "nhưới": 3573,
    "nhướng": 3574,
    "nhường": 3575,
    "nhược": 3576,
    "nhượng": 3577,
    "nhạc": 3578,
    "nhại": 3579,
    "nhạn": 3580,
    "nhạnh": 3581,
    "nhạo": 3582,
    "nhạp": 3583,
    "nhạt": 3584,
    "nhạu": 3585,
    "nhạy": 3586,
    "nhả": 3587,
    "nhải": 3588,
    "nhảm": 3589,
    "nhản": 3590,
    "nhảng": 3591,
    "nhảnh": 3592,
    "nhảu": 3593,
    "nhảy": 3594,
    "nhấc": 3595,
    "nhấm": 3596,
    "nhấn": 3597,
    "nhấp": 3598,
    "nhất": 3599,
    "nhấu": 3600,
    "nhầm": 3601,
    "nhần": 3602,
    "nhầu": 3603,
    "nhầy": 3604,
    "nhẩn": 3605,
    "nhẩu": 3606,
    "nhẩy": 3607,
    "nhẫn": 3608,
    "nhẫy": 3609,
    "nhậm": 3610,
    "nhận": 3611,
    "nhập": 3612,
    "nhật": 3613,
    "nhậu": 3614,
    "nhậy": 3615,
    "nhắc": 3616,
    "nhắm": 3617,
    "nhắn": 3618,
    "nhắng": 3619,
    "nhắp": 3620,
    "nhắt": 3621,
    "nhằm": 3622,
    "nhằn": 3623,
    "nhằng": 3624,
    "nhẳng": 3625,
    "nhẵn": 3626,
    "nhặm": 3627,
    "nhặn": 3628,
    "nhặng": 3629,
    "nhặt": 3630,
    "nhẹ": 3631,
    "nhẹm": 3632,
    "nhẹn": 3633,
    "nhẹo": 3634,
    "nhẹp": 3635,
    "nhẹt": 3636,
    "nhẻ": 3637,
    "nhẻm": 3638,
    "nhẻo": 3639,
    "nhẽ": 3640,
    "nhẽo": 3641,
    "nhếch": 3642,
    "nhếu": 3643,
    "nhề": 3644,
    "nhều": 3645,
    "nhễ": 3646,
    "nhễu": 3647,
    "nhệ": 3648,
    "nhện": 3649,
    "nhỉ": 3650,
    "nhỉnh": 3651,
    "nhỉu": 3652,
    "nhị": 3653,
    "nhịn": 3654,
    "nhịp": 3655,
    "nhịt": 3656,
    "nhịu": 3657,
    "nhọ": 3658,
    "nhọc": 3659,
    "nhọn": 3660,
    "nhọt": 3661,
    "nhỏ": 3662,
    "nhỏi": 3663,
    "nhỏm": 3664,
    "nhỏn": 3665,
    "nhỏng": 3666,
    "nhố": 3667,
    "nhốm": 3668,
    "nhốn": 3669,
    "nhống": 3670,
    "nhốt": 3671,
    "nhồi": 3672,
    "nhồm": 3673,
    "nhồng": 3674,
    "nhổ": 3675,
    "nhổm": 3676,
    "nhổn": 3677,
    "nhỗ": 3678,
    "nhộn": 3679,
    "nhột": 3680,
    "nhớ": 3681,
    "nhớm": 3682,
    "nhớn": 3683,
    "nhớp": 3684,
    "nhớt": 3685,
    "nhờ": 3686,
    "nhờm": 3687,
    "nhờn": 3688,
    "nhở": 3689,
    "nhởn": 3690,
    "nhỡ": 3691,
    "nhỡn": 3692,
    "nhợ": 3693,
    "nhợn": 3694,
    "nhợt": 3695,
    "nhụ": 3696,
    "nhụa": 3697,
    "nhục": 3698,
    "nhụi": 3699,
    "nhụng": 3700,
    "nhụt": 3701,
    "nhụy": 3702,
    "nhủi": 3703,
    "nhủng": 3704,
    "nhứ": 3705,
    "nhức": 3706,
    "nhứt": 3707,
    "nhừ": 3708,
    "nhừng": 3709,
    "nhử": 3710,
    "nhửng": 3711,
    "nhữn": 3712,
    "những": 3713,
    "nhự": 3714,
    "nhựa": 3715,
    "nhựt": 3716,
    "ni": 3717,
    "nia": 3718,
    "nilon": 3719,
    "ninh": 3720,
    "niu": 3721,
    "niêm": 3722,
    "niên": 3723,
    "niêu": 3724,
    "niềm": 3725,
    "niền": 3726,
    "niềng": 3727,
    "niểng": 3728,
    "niễng": 3729,
    "niệm": 3730,
    "niệt": 3731,
    "niệu": 3732,
    "no": 3733,
    "nom": 3734,
    "non": 3735,
    "nong": 3736,
    "nouille": 3737,
    "nous": 3738,
    "nu": 3739,
    "nua": 3740,
    "nuggled": 3741,
    "nui": 3742,
    "numéro": 3743,
    "nung": 3744,
    "nuôi": 3745,
    "nuông": 3746,
    "nuối": 3747,
    "nuốt": 3748,
    "nuồng": 3749,
    "nuộc": 3750,
    "nà": 3751,
    "nài": 3752,
    "nàm": 3753,
    "nàn": 3754,
    "nàng": 3755,
    "nành": 3756,
    "nào": 3757,
    "này": 3758,
    "ná": 3759,
    "nác": 3760,
    "nách": 3761,
    "nái": 3762,
    "nám": 3763,
    "nán": 3764,
    "náng": 3765,
    "náo": 3766,
    "nát": 3767,
    "náu": 3768,
    "náy": 3769,
    "nâng": 3770,
    "nâu": 3771,
    "nây": 3772,
    "nã": 3773,
    "não": 3774,
    "nãy": 3775,
    "nè": 3776,
    "nèo": 3777,
    "né": 3778,
    "ném": 3779,
    "nén": 3780,
    "nép": 3781,
    "nét": 3782,
    "nê": 3783,
    "nêm": 3784,
    "nên": 3785,
    "nêu": 3786,
    "nìn": 3787,
    "ní": 3788,
    "ních": 3789,
    "nín": 3790,
    "nính": 3791,
    "nít": 3792,
    "níu": 3793,
    "nò": 3794,
    "nòi": 3795,
    "nòng": 3796,
    "nó": 3797,
    "nóc": 3798,
    "nói": 3799,
    "nón": 3800,
    "nóng": 3801,
    "nóp": 3802,
    "nót": 3803,
    "nô": 3804,
    "nôi": 3805,
    "nôm": 3806,
    "nôn": 3807,
    "nông": 3808,
    "nùi": 3809,
    "núc": 3810,
    "núi": 3811,
    "núm": 3812,
    "núng": 3813,
    "núp": 3814,
    "nút": 3815,
    "năm": 3816,
    "năn": 3817,
    "năng": 3818,
    "nĩa": 3819,
    "nĩnh": 3820,
    "nũng": 3821,
    "nơ": 3822,
    "nơi": 3823,
    "nơm": 3824,
    "nư": 3825,
    "nưng": 3826,
    "nương": 3827,
    "nước": 3828,
    "nướng": 3829,
    "nườm": 3830,
    "nưởng": 3831,
    "nược": 3832,
    "nượp": 3833,
    "nạc": 3834,
    "nại": 3835,
    "nạm": 3836,
    "nạn": 3837,
    "nạng": 3838,
    "nạnh": 3839,
    "nạo": 3840,
    "nạp": 3841,
    "nạt": 3842,
    "nạy": 3843,
    "nả": 3844,
    "nải": 3845,
    "nản": 3846,
    "nảo": 3847,
    "nảy": 3848,
    "nấc": 3849,
    "nấm": 3850,
    "nấn": 3851,
    "nấp": 3852,
    "nấu": 3853,
    "nấy": 3854,
    "nầm": 3855,
    "nần": 3856,
    "nầng": 3857,
    "nầy": 3858,
    "nẩy": 3859,
    "nẫm": 3860,
    "nẫng": 3861,
    "nẫu": 3862,
    "nẫy": 3863,
    "nập": 3864,
    "nậu": 3865,
    "nắc": 3866,
    "nắm": 3867,
    "nắn": 3868,
    "nắng": 3869,
    "nắp": 3870,
    "nằm": 3871,
    "nằng": 3872,
    "nẳm": 3873,
    "nẵng": 3874,
    "nặc": 3875,
    "nặm": 3876,
    "nặn": 3877,
    "nặng": 3878,
    "nẹo": 3879,
    "nẹp": 3880,
    "nẹt": 3881,
    "nẻ": 3882,
    "nẻo": 3883,
    "nế": 3884,
    "nếm": 3885,
    "nến": 3886,
    "nếp": 3887,
    "nết": 3888,
    "nếu": 3889,
    "nề": 3890,
    "nền": 3891,
    "nể": 3892,
    "nệ": 3893,
    "nệm": 3894,
    "nện": 3895,
    "nỉ": 3896,
    "nỉnh": 3897,
    "nị": 3898,
    "nịch": 3899,
    "nịnh": 3900,
    "nịt": 3901,
    "nịu": 3902,
    "nọ": 3903,
    "nọc": 3904,
    "nọt": 3905,
    "nỏ": 3906,
    "nố": 3907,
    "nốc": 3908,
    "nối": 3909,
    "nốt": 3910,
    "nồ": 3911,
    "nồi": 3912,
    "nồng": 3913,
    "nổ": 3914,
    "nổi": 3915,
    "nổng": 3916,
    "nỗ": 3917,
    "nỗi": 3918,
    "nộ": 3919,
    "nội": 3920,
    "nộm": 3921,
    "nộng": 3922,
    "nộp": 3923,
    "nớ": 3924,
    "nới": 3925,
    "nớp": 3926,
    "nớt": 3927,
    "nờm": 3928,
    "nở": 3929,
    "nỡ": 3930,
    "nợ": 3931,
    "nợn": 3932,
    "nợp": 3933,
    "nụ": 3934,
    "nục": 3935,
    "nụi": 3936,
    "nủng": 3937,
    "nứa": 3938,
    "nức": 3939,
    "nứng": 3940,
    "nứt": 3941,
    "nừng": 3942,
    "nửa": 3943,
    "nữ": 3944,
    "nữa": 3945,
    "nự": 3946,
    "nực": 3947,
    "nựng": 3948,
    "o": 3949,
    "oa": 3950,
    "oai": 3951,
    "oam": 3952,
    "oan": 3953,
    "oang": 3954,
    "oanh": 3955,
    "oay": 3956,
    "ocal": 3957,
    "ocr": 3958,
    "odèle": 3959,
    "oe": 3960,
    "oem": 3961,
    "oen": 3962,
    "oeo": 3963,
    "ofa": 3964,
    "ogna": 3965,
    "ognac": 3966,
    "ohler": 3967,
    "oi": 3968,
    "oin": 3969,
    "oint": 3970,
    "oire": 3971,
    "oker": 3972,
    "ol": 3973,
    "ollier": 3974,
    "ollège": 3975,
    "olt": 3976,
    "olume": 3977,
    "om": 3978,
    "omega": 3979,
    "ommande": 3980,
    "on": 3981,
    "onda": 3982,
    "ong": 3983,
    "onjour": 3984,
    "onnette": 3985,
    "onsai": 3986,
    "ont": 3987,
    "ony": 3988,
    "oo": 3989,
    "ooc": 3990,
    "oong": 3991,
    "opier": 3992,
    "or": 3993,
    "orner": 3994,
    "orps": 3995,
    "ort": 3996,
    "ortier": 3997,
    "otte": 3998,
    "ouchoir": 3999,
    "ouille": 4000,
    "ouleau": 4001,
    "oupe": 4002,
    "oupée": 4003,
    "our": 4004,
    "ours": 4005,
    "ous": 4006,
    "oxy": 4007,
    "oà": 4008,
    "oài": 4009,
    "oàm": 4010,
    "oàn": 4011,
    "oàng": 4012,
    "oành": 4013,
    "oày": 4014,
    "oá": 4015,
    "oác": 4016,
    "oách": 4017,
    "oái": 4018,
    "oán": 4019,
    "oáng": 4020,
    "oáp": 4021,
    "oát": 4022,
    "oáy": 4023,
    "oã": 4024,
    "oãi": 4025,
    "oãn": 4026,
    "oãng": 4027,
    "oè": 4028,
    "oèn": 4029,
    "oèo": 4030,
    "oé": 4031,
    "oém": 4032,
    "oén": 4033,
    "oéo": 4034,
    "oét": 4035,
    "oê": 4036,
    "oên": 4037,
    "oó": 4038,
    "oóc": 4039,
    "oă": 4040,
    "oăm": 4041,
    "oăn": 4042,
    "oăng": 4043,
    "oạ": 4044,
    "oạc": 4045,
    "oạch": 4046,
    "oại": 4047,
    "oạm": 4048,
    "oạn": 4049,
    "oạng": 4050,
    "oạnh": 4051,
    "oạp": 4052,
    "oạt": 4053,
    "oạy": 4054,
    "oả": 4055,
    "oải": 4056,
    "oản": 4057,
    "oảng": 4058,
    "oảnh": 4059,
    "oảy": 4060,
    "oắ": 4061,
    "oắc": 4062,
    "oắn": 4063,
    "oắng": 4064,
    "oắp": 4065,
    "oắt": 4066,
    "oằ": 4067,
    "oằm": 4068,
    "oằn": 4069,
    "oằng": 4070,
    "oẳ": 4071,
    "oẳn": 4072,
    "oặ": 4073,
    "oặc": 4074,
    "oặp": 4075,
    "oặt": 4076,
    "oẹ": 4077,
    "oẹo": 4078,
    "oẹt": 4079,
    "oẻ": 4080,
    "oẻm": 4081,
    "oẻn": 4082,
    "oẻo": 4083,
    "oể": 4084,
    "oển": 4085,
    "oệ": 4086,
    "oệch": 4087,
    "p": 4088,
    "parker": 4089,
    "partisan": 4090,
    "patente": 4091,
    "pelure": 4092,
    "penalty": 4093,
    "penicillin": 4094,
    "permanent": 4095,
    "ph": 4096,
    "pha": 4097,
    "phai": 4098,
    "phang": 4099,
    "phanh": 4100,
    "phao": 4101,
    "phay": 4102,
    "phe": 4103,
    "phen": 4104,
    "phi": 4105,
    "philippines": 4106,
    "phim": 4107,
    "phin": 4108,
    "phiu": 4109,
    "phiên": 4110,
    "phiêu": 4111,
    "phiếm": 4112,
    "phiến": 4113,
    "phiếu": 4114,
    "phiền": 4115,
    "phiện": 4116,
    "phiệt": 4117,
    "phnôm": 4118,
    "phong": 4119,
    "phu": 4120,
    "phui": 4121,
    "phun": 4122,
    "phung": 4123,
    "phuông": 4124,
    "phuộc": 4125,
    "phà": 4126,
    "phàn": 4127,
    "phàng": 4128,
    "phào": 4129,
    "phá": 4130,
    "phác": 4131,
    "phách": 4132,
    "phái": 4133,
    "phán": 4134,
    "pháo": 4135,
    "pháp": 4136,
    "phát": 4137,
    "phân": 4138,
    "phè": 4139,
    "phèn": 4140,
    "phèng": 4141,
    "phèo": 4142,
    "phé": 4143,
    "phép": 4144,
    "phét": 4145,
    "phê": 4146,
    "phên": 4147,
    "phì": 4148,
    "phình": 4149,
    "phí": 4150,
    "phía": 4151,
    "phích": 4152,
    "phò": 4153,
    "phòng": 4154,
    "phó": 4155,
    "phóc": 4156,
    "phóng": 4157,
    "phô": 4158,
    "phù": 4159,
    "phú": 4160,
    "phúc": 4161,
    "phút": 4162,
    "phăng": 4163,
    "phũ": 4164,
    "phơ": 4165,
    "phơi": 4166,
    "phương": 4167,
    "phước": 4168,
    "phướn": 4169,
    "phường": 4170,
    "phượng": 4171,
    "phượt": 4172,
    "phạc": 4173,
    "phạch": 4174,
    "phạm": 4175,
    "phạo": 4176,
    "phạt": 4177,
    "phải": 4178,
    "phản": 4179,
    "phảng": 4180,
    "phấn": 4181,
    "phất": 4182,
    "phần": 4183,
    "phẩm": 4184,
    "phẫu": 4185,
    "phận": 4186,
    "phập": 4187,
    "phật": 4188,
    "phắc": 4189,
    "phắt": 4190,
    "phẳng": 4191,
    "phẹt": 4192,
    "phế": 4193,
    "phết": 4194,
    "phếu": 4195,
    "phềnh": 4196,
    "phều": 4197,
    "phễnh": 4198,
    "phễu": 4199,
    "phệ": 4200,
    "phệt": 4201,
    "phỉnh": 4202,
    "phịa": 4203,
    "phịch": 4204,
    "phịu": 4205,
    "phọt": 4206,
    "phỏng": 4207,
    "phố": 4208,
    "phốc": 4209,
    "phối": 4210,
    "phống": 4211,
    "phồng": 4212,
    "phổ": 4213,
    "phổi": 4214,
    "phổng": 4215,
    "phỗng": 4216,
    "phộng": 4217,
    "phớn": 4218,
    "phớt": 4219,
    "phờ": 4220,
    "phở": 4221,
    "phỡn": 4222,
    "phụ": 4223,
    "phục": 4224,
    "phụng": 4225,
    "phủ": 4226,
    "phủi": 4227,
    "phức": 4228,
    "phứt": 4229,
    "pile": 4230,
    "pin": 4231,
    "piston": 4232,
    "planton": 4233,
    "point": 4234,
    "poker": 4235,
    "pont": 4236,
    "poupée": 4237,
    "pour": 4238,
    "preen": 4239,
    "pv": 4240,
    "py": 4241,
    "pê": 4242,
    "pênh": 4243,
    "pênixilin": 4244,
    "pía": 4245,
    "pô": 4246,
    "q": 4247,
    "qt": 4248,
    "qu": 4249,
    "qua": 4250,
    "quai": 4251,
    "quan": 4252,
    "quang": 4253,
    "quanh": 4254,
    "quao": 4255,
    "quau": 4256,
    "quay": 4257,
    "que": 4258,
    "quen": 4259,
    "queo": 4260,
    "quinine": 4261,
    "quy": 4262,
    "quyu": 4263,
    "quyên": 4264,
    "quyù": 4265,
    "quyến": 4266,
    "quyết": 4267,
    "quyền": 4268,
    "quyển": 4269,
    "quyện": 4270,
    "quyệt": 4271,
    "quà": 4272,
    "quàn": 4273,
    "quàng": 4274,
    "quành": 4275,
    "quào": 4276,
    "quàu": 4277,
    "quày": 4278,
    "quá": 4279,
    "quác": 4280,
    "quách": 4281,
    "quái": 4282,
    "quán": 4283,
    "quáng": 4284,
    "quánh": 4285,
    "quát": 4286,
    "quáu": 4287,
    "quân": 4288,
    "quây": 4289,
    "quãng": 4290,
    "què": 4291,
    "quèn": 4292,
    "qué": 4293,
    "quéc": 4294,
    "quén": 4295,
    "quéo": 4296,
    "quét": 4297,
    "quê": 4298,
    "quên": 4299,
    "quì": 4300,
    "quí": 4301,
    "quít": 4302,
    "quòn": 4303,
    "quý": 4304,
    "quýnh": 4305,
    "quýp": 4306,
    "quýt": 4307,
    "quýu": 4308,
    "quăng": 4309,
    "quơ": 4310,
    "quạ": 4311,
    "quạch": 4312,
    "quạng": 4313,
    "quạnh": 4314,
    "quạt": 4315,
    "quạu": 4316,
    "quạy": 4317,
    "quả": 4318,
    "quải": 4319,
    "quản": 4320,
    "quảng": 4321,
    "quảu": 4322,
    "quảy": 4323,
    "quấn": 4324,
    "quất": 4325,
    "quấu": 4326,
    "quấy": 4327,
    "quần": 4328,
    "quầng": 4329,
    "quầy": 4330,
    "quẩn": 4331,
    "quẩy": 4332,
    "quẫn": 4333,
    "quẫy": 4334,
    "quận": 4335,
    "quật": 4336,
    "quậy": 4337,
    "quắc": 4338,
    "quắm": 4339,
    "quắp": 4340,
    "quắt": 4341,
    "quằm": 4342,
    "quằn": 4343,
    "quằng": 4344,
    "quặc": 4345,
    "quặm": 4346,
    "quặn": 4347,
    "quặp": 4348,
    "quặt": 4349,
    "quẹo": 4350,
    "quẹp": 4351,
    "quẹt": 4352,
    "quẻ": 4353,
    "quẽ": 4354,
    "quế": 4355,
    "quếch": 4356,
    "quến": 4357,
    "quếnh": 4358,
    "quết": 4359,
    "quề": 4360,
    "quều": 4361,
    "quệ": 4362,
    "quện": 4363,
    "quệt": 4364,
    "quệu": 4365,
    "quỉ": 4366,
    "quọ": 4367,
    "quọt": 4368,
    "quốc": 4369,
    "quớ": 4370,
    "quới": 4371,
    "quớt": 4372,
    "quờ": 4373,
    "quờn": 4374,
    "quở": 4375,
    "quởn": 4376,
    "quỡn": 4377,
    "quợn": 4378,
    "quứt": 4379,
    "quỳ": 4380,
    "quỳnh": 4381,
    "quỵ": 4382,
    "quỵch": 4383,
    "quỵt": 4384,
    "quỷ": 4385,
    "quỹ": 4386,
    "r": 4387,
    "ra": 4388,
    "racey": 4389,
    "radio": 4390,
    "rai": 4391,
    "rail": 4392,
    "ram": 4393,
    "ramme": 4394,
    "ran": 4395,
    "rang": 4396,
    "ranh": 4397,
    "rao": 4398,
    "rau": 4399,
    "ray": 4400,
    "razil": 4401,
    "re": 4402,
    "ree": 4403,
    "reen": 4404,
    "rem": 4405,
    "ren": 4406,
    "reo": 4407,
    "rhodes": 4408,
    "ri": 4409,
    "ria": 4410,
    "rim": 4411,
    "rinh": 4412,
    "riu": 4413,
    "riêng": 4414,
    "riêu": 4415,
    "riến": 4416,
    "riết": 4417,
    "riếu": 4418,
    "riềng": 4419,
    "riện": 4420,
    "riệt": 4421,
    "ro": 4422,
    "roi": 4423,
    "ron": 4424,
    "rong": 4425,
    "rouleau": 4426,
    "ru": 4427,
    "rua": 4428,
    "run": 4429,
    "rung": 4430,
    "ruy": 4431,
    "ruốc": 4432,
    "ruồi": 4433,
    "ruồng": 4434,
    "ruỗng": 4435,
    "ruộm": 4436,
    "ruộng": 4437,
    "ruột": 4438,
    "rà": 4439,
    "rài": 4440,
    "ràm": 4441,
    "ràn": 4442,
    "ràng": 4443,
    "rành": 4444,
    "rào": 4445,
    "rày": 4446,
    "rá": 4447,
    "rác": 4448,
    "rách": 4449,
    "rái": 4450,
    "rám": 4451,
    "rán": 4452,
    "ráng": 4453,
    "ráo": 4454,
    "ráp": 4455,
    "rát": 4456,
    "ráy": 4457,
    "râm": 4458,
    "rân": 4459,
    "râu": 4460,
    "rây": 4461,
    "rã": 4462,
    "rãi": 4463,
    "rãnh": 4464,
    "rè": 4465,
    "rèm": 4466,
    "rème": 4467,
    "rèn": 4468,
    "ré": 4469,
    "rén": 4470,
    "réo": 4471,
    "rét": 4472,
    "rê": 4473,
    "rêm": 4474,
    "rên": 4475,
    "rêu": 4476,
    "rì": 4477,
    "rìa": 4478,
    "rình": 4479,
    "rìu": 4480,
    "rí": 4481,
    "ría": 4482,
    "rích": 4483,
    "rím": 4484,
    "rín": 4485,
    "rít": 4486,
    "ríu": 4487,
    "rò": 4488,
    "ròi": 4489,
    "ròm": 4490,
    "ròn": 4491,
    "ròng": 4492,
    "ró": 4493,
    "róc": 4494,
    "rói": 4495,
    "róm": 4496,
    "rón": 4497,
    "róng": 4498,
    "rót": 4499,
    "rô": 4500,
    "rôm": 4501,
    "rôn": 4502,
    "rông": 4503,
    "rõ": 4504,
    "rù": 4505,
    "rùa": 4506,
    "rùm": 4507,
    "rùn": 4508,
    "rùng": 4509,
    "rú": 4510,
    "rúa": 4511,
    "rúc": 4512,
    "rúm": 4513,
    "rún": 4514,
    "rút": 4515,
    "răm": 4516,
    "răn": 4517,
    "răng": 4518,
    "rĩ": 4519,
    "rĩnh": 4520,
    "rũ": 4521,
    "rơ": 4522,
    "rơi": 4523,
    "rơm": 4524,
    "rơn": 4525,
    "rưng": 4526,
    "rương": 4527,
    "rước": 4528,
    "rưới": 4529,
    "rướn": 4530,
    "rười": 4531,
    "rườm": 4532,
    "rưởi": 4533,
    "rưỡi": 4534,
    "rượi": 4535,
    "rượt": 4536,
    "rượu": 4537,
    "rạ": 4538,
    "rạc": 4539,
    "rạch": 4540,
    "rạn": 4541,
    "rạng": 4542,
    "rạo": 4543,
    "rạp": 4544,
    "rạt": 4545,
    "rạy": 4546,
    "rả": 4547,
    "rải": 4548,
    "rảng": 4549,
    "rảnh": 4550,
    "rảo": 4551,
    "rảu": 4552,
    "rấm": 4553,
    "rấn": 4554,
    "rấp": 4555,
    "rất": 4556,
    "rấy": 4557,
    "rầm": 4558,
    "rần": 4559,
    "rầu": 4560,
    "rầy": 4561,
    "rẩy": 4562,
    "rẫy": 4563,
    "rậm": 4564,
    "rập": 4565,
    "rật": 4566,
    "rắc": 4567,
    "rắm": 4568,
    "rắn": 4569,
    "rắp": 4570,
    "rắt": 4571,
    "rằm": 4572,
    "rằn": 4573,
    "rằng": 4574,
    "rặc": 4575,
    "rặn": 4576,
    "rặng": 4577,
    "rặt": 4578,
    "rẹp": 4579,
    "rẹt": 4580,
    "rẻ": 4581,
    "rẽ": 4582,
    "rế": 4583,
    "rến": 4584,
    "rết": 4585,
    "rếu": 4586,
    "rề": 4587,
    "rền": 4588,
    "rềnh": 4589,
    "rể": 4590,
    "rễ": 4591,
    "rện": 4592,
    "rệp": 4593,
    "rệt": 4594,
    "rệu": 4595,
    "rỉ": 4596,
    "rỉa": 4597,
    "rỉm": 4598,
    "rỉnh": 4599,
    "rị": 4600,
    "rịch": 4601,
    "rịm": 4602,
    "rịn": 4603,
    "rịt": 4604,
    "rịu": 4605,
    "rọ": 4606,
    "rọc": 4607,
    "rọi": 4608,
    "rọm": 4609,
    "rọng": 4610,
    "rọp": 4611,
    "rọt": 4612,
    "rỏ": 4613,
    "rỏi": 4614,
    "rỏng": 4615,
    "rốc": 4616,
    "rối": 4617,
    "rốn": 4618,
    "rốt": 4619,
    "rồ": 4620,
    "rồi": 4621,
    "rồn": 4622,
    "rồng": 4623,
    "rổ": 4624,
    "rổn": 4625,
    "rỗ": 4626,
    "rỗi": 4627,
    "rỗng": 4628,
    "rộ": 4629,
    "rộc": 4630,
    "rộm": 4631,
    "rộn": 4632,
    "rộng": 4633,
    "rộp": 4634,
    "rột": 4635,
    "rớ": 4636,
    "rớt": 4637,
    "rời": 4638,
    "rờn": 4639,
    "rởi": 4640,
    "rởm": 4641,
    "rỡ": 4642,
    "rỡn": 4643,
    "rợ": 4644,
    "rợi": 4645,
    "rợn": 4646,
    "rợp": 4647,
    "rợt": 4648,
    "rục": 4649,
    "rụi": 4650,
    "rụm": 4651,
    "rụng": 4652,
    "rụp": 4653,
    "rụt": 4654,
    "rủ": 4655,
    "rủa": 4656,
    "rủi": 4657,
    "rủm": 4658,
    "rủn": 4659,
    "rủng": 4660,
    "rức": 4661,
    "rứt": 4662,
    "rừng": 4663,
    "rửa": 4664,
    "rửng": 4665,
    "rữa": 4666,
    "rựa": 4667,
    "rực": 4668,
    "s": 4669,
    "sa": 4670,
    "sai": 4671,
    "san": 4672,
    "sandale": 4673,
    "sang": 4674,
    "sanh": 4675,
    "sao": 4676,
    "satin": 4677,
    "sau": 4678,
    "saut": 4679,
    "say": 4680,
    "se": 4681,
    "second": 4682,
    "sen": 4683,
    "seo": 4684,
    "sep": 4685,
    "si": 4686,
    "sin": 4687,
    "sinh": 4688,
    "siêng": 4689,
    "siêu": 4690,
    "siết": 4691,
    "siển": 4692,
    "slip": 4693,
    "sn": 4694,
    "snuggled": 4695,
    "so": 4696,
    "soa": 4697,
    "sofa": 4698,
    "soi": 4699,
    "son": 4700,
    "song": 4701,
    "sony": 4702,
    "soupe": 4703,
    "soài": 4704,
    "soái": 4705,
    "soát": 4706,
    "soạn": 4707,
    "soạng": 4708,
    "soạt": 4709,
    "soẹt": 4710,
    "stress": 4711,
    "su": 4712,
    "sua": 4713,
    "sui": 4714,
    "sum": 4715,
    "sung": 4716,
    "suy": 4717,
    "suê": 4718,
    "suôn": 4719,
    "suông": 4720,
    "suýt": 4721,
    "suất": 4722,
    "suối": 4723,
    "suốt": 4724,
    "suồng": 4725,
    "sv": 4726,
    "sà": 4727,
    "sài": 4728,
    "sàm": 4729,
    "sàn": 4730,
    "sàng": 4731,
    "sành": 4732,
    "sào": 4733,
    "sá": 4734,
    "sác": 4735,
    "sách": 4736,
    "sái": 4737,
    "sán": 4738,
    "sáng": 4739,
    "sánh": 4740,
    "sáo": 4741,
    "sáp": 4742,
    "sát": 4743,
    "sáu": 4744,
    "sâm": 4745,
    "sân": 4746,
    "sâu": 4747,
    "sây": 4748,
    "sã": 4749,
    "sãi": 4750,
    "sè": 4751,
    "sèo": 4752,
    "sém": 4753,
    "sén": 4754,
    "séo": 4755,
    "sét": 4756,
    "sêm": 4757,
    "sên": 4758,
    "sênh": 4759,
    "sì": 4760,
    "sình": 4761,
    "sính": 4762,
    "sít": 4763,
    "sò": 4764,
    "sòm": 4765,
    "sòn": 4766,
    "sòng": 4767,
    "sóc": 4768,
    "sói": 4769,
    "sóm": 4770,
    "són": 4771,
    "sóng": 4772,
    "sót": 4773,
    "sôi": 4774,
    "sông": 4775,
    "sõi": 4776,
    "sõng": 4777,
    "sùi": 4778,
    "sùm": 4779,
    "sùng": 4780,
    "sú": 4781,
    "súc": 4782,
    "sún": 4783,
    "súng": 4784,
    "súp": 4785,
    "sút": 4786,
    "săm": 4787,
    "săn": 4788,
    "sĩ": 4789,
    "sĩnh": 4790,
    "sũng": 4791,
    "sơ": 4792,
    "sơi": 4793,
    "sơn": 4794,
    "sư": 4795,
    "sưa": 4796,
    "sưng": 4797,
    "sưu": 4798,
    "sương": 4799,
    "sướng": 4800,
    "sướt": 4801,
    "sườn": 4802,
    "sượng": 4803,
    "sượt": 4804,
    "sạ": 4805,
    "sạc": 4806,
    "sạch": 4807,
    "sại": 4808,
    "sạm": 4809,
    "sạn": 4810,
    "sạng": 4811,
    "sạo": 4812,
    "sạp": 4813,
    "sạt": 4814,
    "sả": 4815,
    "sải": 4816,
    "sản": 4817,
    "sảng": 4818,
    "sảnh": 4819,
    "sảo": 4820,
    "sấm": 4821,
    "sấn": 4822,
    "sấp": 4823,
    "sất": 4824,
    "sấu": 4825,
    "sấy": 4826,
    "sầm": 4827,
    "sần": 4828,
    "sầu": 4829,
    "sầy": 4830,
    "sẩm": 4831,
    "sẩn": 4832,
    "sẩy": 4833,
    "sẫm": 4834,
    "sẫu": 4835,
    "sậm": 4836,
    "sận": 4837,
    "sập": 4838,
    "sật": 4839,
    "sậu": 4840,
    "sậy": 4841,
    "sắc": 4842,
    "sắm": 4843,
    "sắn": 4844,
    "sắng": 4845,
    "sắp": 4846,
    "sắt": 4847,
    "sằng": 4848,
    "sẵn": 4849,
    "sặc": 4850,
    "sặt": 4851,
    "sẹo": 4852,
    "sẻ": 4853,
    "sẻn": 4854,
    "sẽ": 4855,
    "sến": 4856,
    "sếnh": 4857,
    "sếp": 4858,
    "sếu": 4859,
    "sề": 4860,
    "sền": 4861,
    "sềnh": 4862,
    "sều": 4863,
    "sểnh": 4864,
    "sệ": 4865,
    "sệt": 4866,
    "sệu": 4867,
    "sỉ": 4868,
    "sỉa": 4869,
    "sỉnh": 4870,
    "sịa": 4871,
    "sịch": 4872,
    "sịnh": 4873,
    "sịt": 4874,
    "sọ": 4875,
    "sọc": 4876,
    "sọi": 4877,
    "sọp": 4878,
    "sọt": 4879,
    "sỏ": 4880,
    "sỏi": 4881,
    "số": 4882,
    "sốc": 4883,
    "sống": 4884,
    "sốt": 4885,
    "sồ": 4886,
    "sồi": 4887,
    "sồn": 4888,
    "sồng": 4889,
    "sổ": 4890,
    "sổng": 4891,
    "sỗ": 4892,
    "sỗi": 4893,
    "sộ": 4894,
    "sộc": 4895,
    "sộng": 4896,
    "sộp": 4897,
    "sột": 4898,
    "sớ": 4899,
    "sới": 4900,
    "sớm": 4901,
    "sớn": 4902,
    "sớt": 4903,
    "sờ": 4904,
    "sờm": 4905,
    "sờn": 4906,
    "sở": 4907,
    "sởi": 4908,
    "sởn": 4909,
    "sỡ": 4910,
    "sỡm": 4911,
    "sợ": 4912,
    "sợi": 4913,
    "sụ": 4914,
    "sụa": 4915,
    "sục": 4916,
    "sụm": 4917,
    "sụn": 4918,
    "sụp": 4919,
    "sụt": 4920,
    "sủ": 4921,
    "sủa": 4922,
    "sủi": 4923,
    "sủng": 4924,
    "sứ": 4925,
    "sứa": 4926,
    "sức": 4927,
    "sứt": 4928,
    "sừ": 4929,
    "sừng": 4930,
    "sử": 4931,
    "sửa": 4932,
    "sửu": 4933,
    "sữa": 4934,
    "sững": 4935,
    "sự": 4936,
    "sực": 4937,
    "sựt": 4938,
    "t": 4939,
    "ta": 4940,
    "tai": 4941,
    "tam": 4942,
    "tan": 4943,
    "tang": 4944,
    "tanh": 4945,
    "tao": 4946,
    "taxi": 4947,
    "tay": 4948,
    "td": 4949,
    "te": 4950,
    "teletype": 4951,
    "tem": 4952,
    "ten": 4953,
    "tennis": 4954,
    "teo": 4955,
    "text": 4956,
    "th": 4957,
    "tha": 4958,
    "thai": 4959,
    "tham": 4960,
    "than": 4961,
    "thang": 4962,
    "thanh": 4963,
    "thao": 4964,
    "thau": 4965,
    "thay": 4966,
    "the": 4967,
    "then": 4968,
    "theo": 4969,
    "thi": 4970,
    "thia": 4971,
    "thinh": 4972,
    "thiu": 4973,
    "thiên": 4974,
    "thiêng": 4975,
    "thiêu": 4976,
    "thiếc": 4977,
    "thiến": 4978,
    "thiếp": 4979,
    "thiết": 4980,
    "thiếu": 4981,
    "thiển": 4982,
    "thiểu": 4983,
    "thiện": 4984,
    "thiệp": 4985,
    "thiệt": 4986,
    "thiệu": 4987,
    "tho": 4988,
    "thoa": 4989,
    "thoai": 4990,
    "thoang": 4991,
    "thoi": 4992,
    "thon": 4993,
    "thong": 4994,
    "thoà": 4995,
    "thoái": 4996,
    "thoáng": 4997,
    "thoát": 4998,
    "thoăn": 4999,
    "thoại": 5000,
    "thoả": 5001,
    "thoải": 5002,
    "thoảng": 5003,
    "thoắng": 5004,
    "thoắt": 5005,
    "thu": 5006,
    "thua": 5007,
    "thui": 5008,
    "thum": 5009,
    "thun": 5010,
    "thung": 5011,
    "thuyên": 5012,
    "thuyết": 5013,
    "thuyền": 5014,
    "thuê": 5015,
    "thuôn": 5016,
    "thuần": 5017,
    "thuẫn": 5018,
    "thuận": 5019,
    "thuật": 5020,
    "thuế": 5021,
    "thuề": 5022,
    "thuể": 5023,
    "thuốc": 5024,
    "thuồng": 5025,
    "thuổi": 5026,
    "thuộc": 5027,
    "thuộm": 5028,
    "thuở": 5029,
    "thuỷ": 5030,
    "thà": 5031,
    "thài": 5032,
    "thàm": 5033,
    "thành": 5034,
    "thá": 5035,
    "thác": 5036,
    "thách": 5037,
    "thái": 5038,
    "thám": 5039,
    "thán": 5040,
    "tháng": 5041,
    "thánh": 5042,
    "tháo": 5043,
    "tháp": 5044,
    "tháu": 5045,
    "thâm": 5046,
    "thân": 5047,
    "thâu": 5048,
    "thây": 5049,
    "thãi": 5050,
    "thè": 5051,
    "thèm": 5052,
    "thèo": 5053,
    "thé": 5054,
    "thén": 5055,
    "thép": 5056,
    "thét": 5057,
    "thê": 5058,
    "thêm": 5059,
    "thênh": 5060,
    "thêu": 5061,
    "thì": 5062,
    "thìa": 5063,
    "thìn": 5064,
    "thình": 5065,
    "thìu": 5066,
    "thí": 5067,
    "thía": 5068,
    "thích": 5069,
    "thím": 5070,
    "thín": 5071,
    "thính": 5072,
    "thít": 5073,
    "thò": 5074,
    "thòi": 5075,
    "thòm": 5076,
    "thòn": 5077,
    "thòng": 5078,
    "thó": 5079,
    "thóc": 5080,
    "thói": 5081,
    "thón": 5082,
    "thóp": 5083,
    "thót": 5084,
    "thô": 5085,
    "thôi": 5086,
    "thôn": 5087,
    "thông": 5088,
    "thõa": 5089,
    "thõng": 5090,
    "thù": 5091,
    "thùa": 5092,
    "thùi": 5093,
    "thùm": 5094,
    "thùn": 5095,
    "thùng": 5096,
    "thùy": 5097,
    "thú": 5098,
    "thúc": 5099,
    "thúi": 5100,
    "thúng": 5101,
    "thúp": 5102,
    "thút": 5103,
    "thăm": 5104,
    "thăn": 5105,
    "thăng": 5106,
    "thũng": 5107,
    "thơ": 5108,
    "thơi": 5109,
    "thơm": 5110,
    "thư": 5111,
    "thưa": 5112,
    "thưng": 5113,
    "thươn": 5114,
    "thương": 5115,
    "thước": 5116,
    "thướt": 5117,
    "thười": 5118,
    "thường": 5119,
    "thưởi": 5120,
    "thưởng": 5121,
    "thượng": 5122,
    "thượt": 5123,
    "thạch": 5124,
    "thạnh": 5125,
    "thạo": 5126,
    "thạp": 5127,
    "thả": 5128,
    "thải": 5129,
    "thảm": 5130,
    "thản": 5131,
    "thảng": 5132,
    "thảnh": 5133,
    "thảo": 5134,
    "thảy": 5135,
    "thấm": 5136,
    "thấp": 5137,
    "thất": 5138,
    "thấu": 5139,
    "thấy": 5140,
    "thầm": 5141,
    "thần": 5142,
    "thầu": 5143,
    "thầy": 5144,
    "thẩm": 5145,
    "thẩn": 5146,
    "thẩu": 5147,
    "thẫm": 5148,
    "thậm": 5149,
    "thận": 5150,
    "thập": 5151,
    "thật": 5152,
    "thắc": 5153,
    "thắm": 5154,
    "thắn": 5155,
    "thắng": 5156,
    "thắp": 5157,
    "thắt": 5158,
    "thằn": 5159,
    "thằng": 5160,
    "thẳm": 5161,
    "thẳng": 5162,
    "thặng": 5163,
    "thẹn": 5164,
    "thẻ": 5165,
    "thế": 5166,
    "thếch": 5167,
    "thếp": 5168,
    "thết": 5169,
    "thề": 5170,
    "thềm": 5171,
    "thền": 5172,
    "thể": 5173,
    "thển": 5174,
    "thểu": 5175,
    "thễnh": 5176,
    "thệ": 5177,
    "thệt": 5178,
    "thỉ": 5179,
    "thỉnh": 5180,
    "thỉu": 5181,
    "thị": 5182,
    "thịch": 5183,
    "thịnh": 5184,
    "thịt": 5185,
    "thịu": 5186,
    "thọ": 5187,
    "thọc": 5188,
    "thọng": 5189,
    "thọt": 5190,
    "thỏ": 5191,
    "thỏa": 5192,
    "thỏi": 5193,
    "thỏm": 5194,
    "thỏn": 5195,
    "thỏng": 5196,
    "thố": 5197,
    "thốc": 5198,
    "thối": 5199,
    "thốn": 5200,
    "thống": 5201,
    "thốt": 5202,
    "thồ": 5203,
    "thồm": 5204,
    "thổ": 5205,
    "thổi": 5206,
    "thổn": 5207,
    "thớ": 5208,
    "thới": 5209,
    "thớm": 5210,
    "thớt": 5211,
    "thờ": 5212,
    "thời": 5213,
    "thờm": 5214,
    "thờn": 5215,
    "thở": 5216,
    "thởi": 5217,
    "thợ": 5218,
    "thợt": 5219,
    "thụ": 5220,
    "thụa": 5221,
    "thục": 5222,
    "thụi": 5223,
    "thụng": 5224,
    "thụt": 5225,
    "thủ": 5226,
    "thủa": 5227,
    "thủi": 5228,
    "thủm": 5229,
    "thủng": 5230,
    "thủy": 5231,
    "thứ": 5232,
    "thứa": 5233,
    "thức": 5234,
    "thứng": 5235,
    "thừa": 5236,
    "thừng": 5237,
    "thử": 5238,
    "thửa": 5239,
    "thửng": 5240,
    "thững": 5241,
    "thự": 5242,
    "thực": 5243,
    "ti": 5244,
    "tia": 5245,
    "tigôn": 5246,
    "tim": 5247,
    "tin": 5248,
    "tinh": 5249,
    "tiu": 5250,
    "tivi": 5251,
    "tiêm": 5252,
    "tiên": 5253,
    "tiêng": 5254,
    "tiêu": 5255,
    "tiếc": 5256,
    "tiến": 5257,
    "tiếng": 5258,
    "tiếp": 5259,
    "tiết": 5260,
    "tiếu": 5261,
    "tiềm": 5262,
    "tiền": 5263,
    "tiều": 5264,
    "tiểu": 5265,
    "tiễn": 5266,
    "tiệc": 5267,
    "tiệm": 5268,
    "tiện": 5269,
    "tiệp": 5270,
    "tiệt": 5271,
    "tk": 5272,
    "to": 5273,
    "toan": 5274,
    "toang": 5275,
    "toanh": 5276,
    "toe": 5277,
    "toi": 5278,
    "ton": 5279,
    "tong": 5280,
    "toong": 5281,
    "toà": 5282,
    "toàn": 5283,
    "toàng": 5284,
    "toác": 5285,
    "toái": 5286,
    "toán": 5287,
    "toáng": 5288,
    "toát": 5289,
    "toãng": 5290,
    "toèn": 5291,
    "toé": 5292,
    "toét": 5293,
    "toạ": 5294,
    "toạc": 5295,
    "toả": 5296,
    "toẹt": 5297,
    "tr": 5298,
    "tra": 5299,
    "trai": 5300,
    "trang": 5301,
    "tranh": 5302,
    "trao": 5303,
    "trau": 5304,
    "tray": 5305,
    "tre": 5306,
    "treo": 5307,
    "tress": 5308,
    "tri": 5309,
    "tria": 5310,
    "trinh": 5311,
    "triến": 5312,
    "triết": 5313,
    "triền": 5314,
    "triều": 5315,
    "triển": 5316,
    "triệt": 5317,
    "triệu": 5318,
    "tro": 5319,
    "trom": 5320,
    "tron": 5321,
    "trong": 5322,
    "troại": 5323,
    "tru": 5324,
    "trui": 5325,
    "trum": 5326,
    "trung": 5327,
    "truyền": 5328,
    "truyện": 5329,
    "truân": 5330,
    "truông": 5331,
    "truồng": 5332,
    "trà": 5333,
    "trài": 5334,
    "tràm": 5335,
    "tràn": 5336,
    "tràng": 5337,
    "trành": 5338,
    "trào": 5339,
    "tràu": 5340,
    "trày": 5341,
    "trá": 5342,
    "trác": 5343,
    "trách": 5344,
    "trái": 5345,
    "trám": 5346,
    "trán": 5347,
    "tráng": 5348,
    "tránh": 5349,
    "tráo": 5350,
    "tráp": 5351,
    "trát": 5352,
    "trâm": 5353,
    "trân": 5354,
    "trâu": 5355,
    "trây": 5356,
    "trã": 5357,
    "trèm": 5358,
    "trèn": 5359,
    "trèo": 5360,
    "trém": 5361,
    "trén": 5362,
    "tréo": 5363,
    "trét": 5364,
    "trê": 5365,
    "trên": 5366,
    "trêu": 5367,
    "trì": 5368,
    "trình": 5369,
    "trí": 5370,
    "trích": 5371,
    "trính": 5372,
    "trít": 5373,
    "tríu": 5374,
    "trò": 5375,
    "tròi": 5376,
    "tròm": 5377,
    "tròn": 5378,
    "tròng": 5379,
    "tró": 5380,
    "tróc": 5381,
    "trói": 5382,
    "tróm": 5383,
    "tróng": 5384,
    "trót": 5385,
    "trôi": 5386,
    "trôm": 5387,
    "trôn": 5388,
    "trông": 5389,
    "trù": 5390,
    "trùm": 5391,
    "trùn": 5392,
    "trùng": 5393,
    "trú": 5394,
    "trúc": 5395,
    "trúm": 5396,
    "trúng": 5397,
    "trút": 5398,
    "trăm": 5399,
    "trăn": 5400,
    "trăng": 5401,
    "trĩ": 5402,
    "trĩu": 5403,
    "trũng": 5404,
    "trơ": 5405,
    "trơn": 5406,
    "trưa": 5407,
    "trưng": 5408,
    "trương": 5409,
    "trước": 5410,
    "trướng": 5411,
    "trườn": 5412,
    "trường": 5413,
    "trưởng": 5414,
    "trượng": 5415,
    "trượt": 5416,
    "trạc": 5417,
    "trạch": 5418,
    "trại": 5419,
    "trạm": 5420,
    "trạng": 5421,
    "trạnh": 5422,
    "trạo": 5423,
    "trạt": 5424,
    "trạy": 5425,
    "trả": 5426,
    "trải": 5427,
    "trản": 5428,
    "trảng": 5429,
    "trảy": 5430,
    "trấm": 5431,
    "trấn": 5432,
    "trấp": 5433,
    "trất": 5434,
    "trấu": 5435,
    "trầm": 5436,
    "trần": 5437,
    "trầu": 5438,
    "trầy": 5439,
    "trẩy": 5440,
    "trậm": 5441,
    "trận": 5442,
    "trập": 5443,
    "trật": 5444,
    "trắc": 5445,
    "trắng": 5446,
    "trằn": 5447,
    "trặc": 5448,
    "trẹo": 5449,
    "trẹt": 5450,
    "trẻ": 5451,
    "trẻo": 5452,
    "trẽn": 5453,
    "trết": 5454,
    "trề": 5455,
    "trển": 5456,
    "trễ": 5457,
    "trệ": 5458,
    "trệch": 5459,
    "trệt": 5460,
    "trệu": 5461,
    "trị": 5462,
    "trịa": 5463,
    "trịch": 5464,
    "trịnh": 5465,
    "trịt": 5466,
    "trịu": 5467,
    "trọ": 5468,
    "trọc": 5469,
    "trọi": 5470,
    "trọn": 5471,
    "trọng": 5472,
    "trọt": 5473,
    "trỏ": 5474,
    "trố": 5475,
    "trốc": 5476,
    "trối": 5477,
    "trốn": 5478,
    "trống": 5479,
    "trốt": 5480,
    "trồ": 5481,
    "trồng": 5482,
    "trổ": 5483,
    "trổi": 5484,
    "trổng": 5485,
    "trỗ": 5486,
    "trộ": 5487,
    "trộc": 5488,
    "trội": 5489,
    "trộm": 5490,
    "trộn": 5491,
    "trộng": 5492,
    "trớ": 5493,
    "trớn": 5494,
    "trớp": 5495,
    "trớt": 5496,
    "trờ": 5497,
    "trời": 5498,
    "trờn": 5499,
    "trở": 5500,
    "trợ": 5501,
    "trợm": 5502,
    "trợn": 5503,
    "trợt": 5504,
    "trụ": 5505,
    "trụa": 5506,
    "trục": 5507,
    "trụi": 5508,
    "trụng": 5509,
    "trụy": 5510,
    "trứng": 5511,
    "trừ": 5512,
    "trừng": 5513,
    "trửng": 5514,
    "trữ": 5515,
    "trực": 5516,
    "tu": 5517,
    "tua": 5518,
    "tui": 5519,
    "tum": 5520,
    "tung": 5521,
    "tuy": 5522,
    "tuyến": 5523,
    "tuyết": 5524,
    "tuyền": 5525,
    "tuyển": 5526,
    "tuyệt": 5527,
    "tuân": 5528,
    "tuôn": 5529,
    "tuông": 5530,
    "tuý": 5531,
    "tuýp": 5532,
    "tuần": 5533,
    "tuếch": 5534,
    "tuềnh": 5535,
    "tuệ": 5536,
    "tuệch": 5537,
    "tuốt": 5538,
    "tuồm": 5539,
    "tuồn": 5540,
    "tuồng": 5541,
    "tuổi": 5542,
    "tuột": 5543,
    "tuỳ": 5544,
    "ty": 5545,
    "tà": 5546,
    "tài": 5547,
    "tàm": 5548,
    "tàn": 5549,
    "tàng": 5550,
    "tành": 5551,
    "tào": 5552,
    "tàu": 5553,
    "tày": 5554,
    "tá": 5555,
    "tác": 5556,
    "tách": 5557,
    "tái": 5558,
    "tám": 5559,
    "tán": 5560,
    "táng": 5561,
    "tánh": 5562,
    "táo": 5563,
    "táp": 5564,
    "tát": 5565,
    "táu": 5566,
    "táy": 5567,
    "tâm": 5568,
    "tân": 5569,
    "tâng": 5570,
    "tây": 5571,
    "tã": 5572,
    "tè": 5573,
    "tèm": 5574,
    "tèo": 5575,
    "té": 5576,
    "tém": 5577,
    "téo": 5578,
    "tép": 5579,
    "tét": 5580,
    "tê": 5581,
    "têm": 5582,
    "tên": 5583,
    "tênh": 5584,
    "têu": 5585,
    "tì": 5586,
    "tìm": 5587,
    "tìn": 5588,
    "tình": 5589,
    "tí": 5590,
    "tía": 5591,
    "tích": 5592,
    "tím": 5593,
    "tín": 5594,
    "tính": 5595,
    "tít": 5596,
    "tíu": 5597,
    "tò": 5598,
    "tòa": 5599,
    "tòm": 5600,
    "tòn": 5601,
    "tòng": 5602,
    "tó": 5603,
    "tóc": 5604,
    "tóe": 5605,
    "tói": 5606,
    "tóm": 5607,
    "tóp": 5608,
    "tót": 5609,
    "tô": 5610,
    "tôi": 5611,
    "tôm": 5612,
    "tôn": 5613,
    "tông": 5614,
    "tõm": 5615,
    "tù": 5616,
    "tùa": 5617,
    "tùm": 5618,
    "tùng": 5619,
    "tùy": 5620,
    "tú": 5621,
    "túa": 5622,
    "túc": 5623,
    "túi": 5624,
    "túm": 5625,
    "túng": 5626,
    "túy": 5627,
    "tăm": 5628,
    "tăn": 5629,
    "tăng": 5630,
    "tĩ": 5631,
    "tĩnh": 5632,
    "tĩu": 5633,
    "tũn": 5634,
    "tơ": 5635,
    "tơi": 5636,
    "tơn": 5637,
    "tư": 5638,
    "tưa": 5639,
    "tưng": 5640,
    "tươi": 5641,
    "tươm": 5642,
    "tươn": 5643,
    "tương": 5644,
    "tươu": 5645,
    "tước": 5646,
    "tưới": 5647,
    "tướng": 5648,
    "tướp": 5649,
    "tướt": 5650,
    "tướu": 5651,
    "tường": 5652,
    "tưởi": 5653,
    "tưởng": 5654,
    "tược": 5655,
    "tượng": 5656,
    "tượt": 5657,
    "tạ": 5658,
    "tại": 5659,
    "tạm": 5660,
    "tạng": 5661,
    "tạnh": 5662,
    "tạo": 5663,
    "tạp": 5664,
    "tạt": 5665,
    "tả": 5666,
    "tải": 5667,
    "tản": 5668,
    "tảng": 5669,
    "tảo": 5670,
    "tấc": 5671,
    "tấm": 5672,
    "tấn": 5673,
    "tấp": 5674,
    "tất": 5675,
    "tầm": 5676,
    "tần": 5677,
    "tầng": 5678,
    "tầu": 5679,
    "tầy": 5680,
    "tẩm": 5681,
    "tẩn": 5682,
    "tẩu": 5683,
    "tẩy": 5684,
    "tậm": 5685,
    "tận": 5686,
    "tập": 5687,
    "tật": 5688,
    "tắc": 5689,
    "tắm": 5690,
    "tắn": 5691,
    "tắng": 5692,
    "tắp": 5693,
    "tắt": 5694,
    "tằm": 5695,
    "tằn": 5696,
    "tằng": 5697,
    "tặc": 5698,
    "tặn": 5699,
    "tặng": 5700,
    "tặt": 5701,
    "tẹc": 5702,
    "tẹo": 5703,
    "tẹp": 5704,
    "tẹt": 5705,
    "tẻ": 5706,
    "tẻo": 5707,
    "tẽ": 5708,
    "tẽn": 5709,
    "tế": 5710,
    "tếch": 5711,
    "tết": 5712,
    "tếu": 5713,
    "tề": 5714,
    "tềnh": 5715,
    "tể": 5716,
    "tễ": 5717,
    "tễnh": 5718,
    "tệ": 5719,
    "tệp": 5720,
    "tỉ": 5721,
    "tỉa": 5722,
    "tỉm": 5723,
    "tỉnh": 5724,
    "tị": 5725,
    "tịch": 5726,
    "tịnh": 5727,
    "tịt": 5728,
    "tịu": 5729,
    "tọa": 5730,
    "tọc": 5731,
    "tọng": 5732,
    "tọt": 5733,
    "tỏ": 5734,
    "tỏa": 5735,
    "tỏi": 5736,
    "tỏm": 5737,
    "tỏn": 5738,
    "tỏng": 5739,
    "tố": 5740,
    "tốc": 5741,
    "tối": 5742,
    "tốn": 5743,
    "tống": 5744,
    "tốp": 5745,
    "tốt": 5746,
    "tồ": 5747,
    "tồi": 5748,
    "tồn": 5749,
    "tồng": 5750,
    "tổ": 5751,
    "tổn": 5752,
    "tổng": 5753,
    "tộ": 5754,
    "tộc": 5755,
    "tội": 5756,
    "tột": 5757,
    "tớ": 5758,
    "tới": 5759,
    "tớn": 5760,
    "tờ": 5761,
    "tời": 5762,
    "tởm": 5763,
    "tởn": 5764,
    "tợn": 5765,
    "tụ": 5766,
    "tục": 5767,
    "tụi": 5768,
    "tụm": 5769,
    "tụng": 5770,
    "tụt": 5771,
    "tụy": 5772,
    "tủ": 5773,
    "tủa": 5774,
    "tủi": 5775,
    "tủm": 5776,
    "tủn": 5777,
    "tứ": 5778,
    "tức": 5779,
    "từ": 5780,
    "từa": 5781,
    "từng": 5782,
    "tử": 5783,
    "tửa": 5784,
    "tửng": 5785,
    "tửu": 5786,
    "tự": 5787,
    "tựa": 5788,
    "tựu": 5789,
    "tỷ": 5790,
    "u": 5791,
    "ua": 5792,
    "ucci": 5793,
    "uffe": 5794,
    "uffet": 5795,
    "ugi": 5796,
    "ui": 5797,
    "uitar": 5798,
    "um": 5799,
    "uméro": 5800,
    "un": 5801,
    "ung": 5802,
    "uroa": 5803,
    "uy": 5804,
    "uya": 5805,
    "uynh": 5806,
    "uyt": 5807,
    "uyê": 5808,
    "uyên": 5809,
    "uyẹ": 5810,
    "uyẹt": 5811,
    "uyế": 5812,
    "uyến": 5813,
    "uyết": 5814,
    "uyề": 5815,
    "uyền": 5816,
    "uyể": 5817,
    "uyển": 5818,
    "uyễ": 5819,
    "uyễn": 5820,
    "uyệ": 5821,
    "uyện": 5822,
    "uyệt": 5823,
    "uày": 5824,
    "uâ": 5825,
    "uân": 5826,
    "uây": 5827,
    "uê": 5828,
    "uênh": 5829,
    "uô": 5830,
    "uôi": 5831,
    "uôm": 5832,
    "uôn": 5833,
    "uông": 5834,
    "uý": 5835,
    "uých": 5836,
    "uýnh": 5837,
    "uýp": 5838,
    "uýt": 5839,
    "uơ": 5840,
    "uơn": 5841,
    "uấ": 5842,
    "uất": 5843,
    "uấy": 5844,
    "uầ": 5845,
    "uần": 5846,
    "uẩ": 5847,
    "uẩn": 5848,
    "uẩy": 5849,
    "uẫ": 5850,
    "uẫn": 5851,
    "uậ": 5852,
    "uận": 5853,
    "uật": 5854,
    "uậy": 5855,
    "uế": 5856,
    "uếch": 5857,
    "uếnh": 5858,
    "uề": 5859,
    "uềnh": 5860,
    "uều": 5861,
    "uể": 5862,
    "uệ": 5863,
    "uệch": 5864,
    "uố": 5865,
    "uốc": 5866,
    "uối": 5867,
    "uốn": 5868,
    "uống": 5869,
    "uốp": 5870,
    "uốt": 5871,
    "uồ": 5872,
    "uồi": 5873,
    "uồm": 5874,
    "uồn": 5875,
    "uồng": 5876,
    "uổ": 5877,
    "uổi": 5878,
    "uổn": 5879,
    "uổng": 5880,
    "uỗ": 5881,
    "uỗi": 5882,
    "uỗm": 5883,
    "uỗng": 5884,
    "uộ": 5885,
    "uộc": 5886,
    "uội": 5887,
    "uộm": 5888,
    "uộn": 5889,
    "uộng": 5890,
    "uột": 5891,
    "uớ": 5892,
    "uớt": 5893,
    "uờ": 5894,
    "uờn": 5895,
    "uở": 5896,
    "uỡ": 5897,
    "uỡn": 5898,
    "uợ": 5899,
    "uợn": 5900,
    "uỳ": 5901,
    "uỳnh": 5902,
    "uỵ": 5903,
    "uỵch": 5904,
    "uỷ": 5905,
    "uỷnh": 5906,
    "uỷu": 5907,
    "uỹ": 5908,
    "v": 5909,
    "va": 5910,
    "vai": 5911,
    "vali": 5912,
    "van": 5913,
    "vang": 5914,
    "vanh": 5915,
    "vay": 5916,
    "vd": 5917,
    "ve": 5918,
    "ven": 5919,
    "vi": 5920,
    "view": 5921,
    "vin": 5922,
    "vinh": 5923,
    "viêm": 5924,
    "viên": 5925,
    "viến": 5926,
    "viếng": 5927,
    "viết": 5928,
    "viền": 5929,
    "viển": 5930,
    "viễn": 5931,
    "việc": 5932,
    "viện": 5933,
    "việt": 5934,
    "vo": 5935,
    "voi": 5936,
    "volume": 5937,
    "vom": 5938,
    "vu": 5939,
    "vua": 5940,
    "vui": 5941,
    "vun": 5942,
    "vung": 5943,
    "vuông": 5944,
    "vuốt": 5945,
    "vuột": 5946,
    "và": 5947,
    "vài": 5948,
    "vàm": 5949,
    "vàng": 5950,
    "vành": 5951,
    "vào": 5952,
    "vàu": 5953,
    "vày": 5954,
    "vá": 5955,
    "vác": 5956,
    "vách": 5957,
    "vái": 5958,
    "ván": 5959,
    "váng": 5960,
    "vánh": 5961,
    "váo": 5962,
    "váp": 5963,
    "vát": 5964,
    "váy": 5965,
    "vâm": 5966,
    "vân": 5967,
    "vâng": 5968,
    "vây": 5969,
    "vã": 5970,
    "vãi": 5971,
    "vãm": 5972,
    "vãn": 5973,
    "vãnh": 5974,
    "vè": 5975,
    "vèo": 5976,
    "vé": 5977,
    "vén": 5978,
    "véo": 5979,
    "vét": 5980,
    "vê": 5981,
    "vên": 5982,
    "vênh": 5983,
    "vêu": 5984,
    "vì": 5985,
    "vìa": 5986,
    "ví": 5987,
    "vía": 5988,
    "vích": 5989,
    "vính": 5990,
    "vít": 5991,
    "víu": 5992,
    "vò": 5993,
    "vòi": 5994,
    "vòm": 5995,
    "vòng": 5996,
    "vó": 5997,
    "vóc": 5998,
    "vói": 5999,
    "vón": 6000,
    "vóng": 6001,
    "vót": 6002,
    "vô": 6003,
    "vôi": 6004,
    "vông": 6005,
    "võ": 6006,
    "võng": 6007,
    "vù": 6008,
    "vùa": 6009,
    "vùi": 6010,
    "vùng": 6011,
    "vú": 6012,
    "vúc": 6013,
    "vút": 6014,
    "văm": 6015,
    "văn": 6016,
    "văng": 6017,
    "vĩ": 6018,
    "vĩnh": 6019,
    "vũ": 6020,
    "vũm": 6021,
    "vũng": 6022,
    "vơ": 6023,
    "vơi": 6024,
    "vươn": 6025,
    "vương": 6026,
    "vướng": 6027,
    "vườn": 6028,
    "vưởng": 6029,
    "vược": 6030,
    "vượn": 6031,
    "vượt": 6032,
    "vạ": 6033,
    "vạc": 6034,
    "vạch": 6035,
    "vại": 6036,
    "vạm": 6037,
    "vạn": 6038,
    "vạnh": 6039,
    "vạt": 6040,
    "vạy": 6041,
    "vả": 6042,
    "vải": 6043,
    "vảng": 6044,
    "vảnh": 6045,
    "vảy": 6046,
    "vấn": 6047,
    "vấp": 6048,
    "vất": 6049,
    "vấy": 6050,
    "vần": 6051,
    "vầu": 6052,
    "vầy": 6053,
    "vẩn": 6054,
    "vẩu": 6055,
    "vẩy": 6056,
    "vẫn": 6057,
    "vẫy": 6058,
    "vận": 6059,
    "vật": 6060,
    "vậy": 6061,
    "vắc": 6062,
    "vắn": 6063,
    "vắng": 6064,
    "vắt": 6065,
    "vằm": 6066,
    "vằn": 6067,
    "vằng": 6068,
    "vẳng": 6069,
    "vặc": 6070,
    "vặm": 6071,
    "vặn": 6072,
    "vặp": 6073,
    "vặt": 6074,
    "vẹn": 6075,
    "vẹo": 6076,
    "vẹt": 6077,
    "vẻ": 6078,
    "vẻn": 6079,
    "vẽ": 6080,
    "vế": 6081,
    "vếch": 6082,
    "vếnh": 6083,
    "vết": 6084,
    "về": 6085,
    "vều": 6086,
    "vểnh": 6087,
    "vệ": 6088,
    "vện": 6089,
    "vệt": 6090,
    "vỉ": 6091,
    "vỉa": 6092,
    "vỉnh": 6093,
    "vị": 6094,
    "vịm": 6095,
    "vịn": 6096,
    "vịnh": 6097,
    "vịt": 6098,
    "vọ": 6099,
    "vọc": 6100,
    "vọi": 6101,
    "vọm": 6102,
    "vọng": 6103,
    "vọp": 6104,
    "vọt": 6105,
    "vỏ": 6106,
    "vỏn": 6107,
    "vố": 6108,
    "vốc": 6109,
    "vốn": 6110,
    "vồ": 6111,
    "vồn": 6112,
    "vồng": 6113,
    "vổ": 6114,
    "vổng": 6115,
    "vỗ": 6116,
    "vội": 6117,
    "vớ": 6118,
    "với": 6119,
    "vớn": 6120,
    "vớt": 6121,
    "vờ": 6122,
    "vời": 6123,
    "vở": 6124,
    "vởn": 6125,
    "vỡ": 6126,
    "vợ": 6127,
    "vợt": 6128,
    "vụ": 6129,
    "vụn": 6130,
    "vụng": 6131,
    "vụt": 6132,
    "vủn": 6133,
    "vức": 6134,
    "vứt": 6135,
    "vừa": 6136,
    "vừng": 6137,
    "vữa": 6138,
    "vững": 6139,
    "vựa": 6140,
    "vực": 6141,
    "w": 6142,
    "wifi": 6143,
    "x": 6144,
    "xa": 6145,
    "xai": 6146,
    "xam": 6147,
    "xang": 6148,
    "xanh": 6149,
    "xao": 6150,
    "xay": 6151,
    "xe": 6152,
    "xem": 6153,
    "xen": 6154,
    "xeo": 6155,
    "xi": 6156,
    "xin": 6157,
    "xinh": 6158,
    "xiu": 6159,
    "xiêm": 6160,
    "xiên": 6161,
    "xiêu": 6162,
    "xiếc": 6163,
    "xiếm": 6164,
    "xiếng": 6165,
    "xiết": 6166,
    "xiềng": 6167,
    "xiểm": 6168,
    "xiểng": 6169,
    "xiệc": 6170,
    "xo": 6171,
    "xoa": 6172,
    "xoay": 6173,
    "xoe": 6174,
    "xoi": 6175,
    "xom": 6176,
    "xon": 6177,
    "xong": 6178,
    "xoong": 6179,
    "xoà": 6180,
    "xoài": 6181,
    "xoàn": 6182,
    "xoàng": 6183,
    "xoành": 6184,
    "xoá": 6185,
    "xoáy": 6186,
    "xoã": 6187,
    "xoè": 6188,
    "xoăn": 6189,
    "xoạc": 6190,
    "xoạch": 6191,
    "xoảng": 6192,
    "xoắn": 6193,
    "xoẹt": 6194,
    "xu": 6195,
    "xua": 6196,
    "xui": 6197,
    "xum": 6198,
    "xun": 6199,
    "xung": 6200,
    "xuyt": 6201,
    "xuyên": 6202,
    "xuyẹt": 6203,
    "xuyến": 6204,
    "xuân": 6205,
    "xuê": 6206,
    "xuôi": 6207,
    "xuông": 6208,
    "xuýt": 6209,
    "xuất": 6210,
    "xuề": 6211,
    "xuềnh": 6212,
    "xuể": 6213,
    "xuống": 6214,
    "xuồng": 6215,
    "xx": 6216,
    "xà": 6217,
    "xài": 6218,
    "xàm": 6219,
    "xàn": 6220,
    "xàng": 6221,
    "xành": 6222,
    "xào": 6223,
    "xàu": 6224,
    "xá": 6225,
    "xác": 6226,
    "xách": 6227,
    "xái": 6228,
    "xám": 6229,
    "xán": 6230,
    "xáng": 6231,
    "xánh": 6232,
    "xáo": 6233,
    "xáp": 6234,
    "xát": 6235,
    "xáu": 6236,
    "xáy": 6237,
    "xâm": 6238,
    "xân": 6239,
    "xâu": 6240,
    "xây": 6241,
    "xã": 6242,
    "xè": 6243,
    "xèm": 6244,
    "xèn": 6245,
    "xèo": 6246,
    "xé": 6247,
    "xém": 6248,
    "xén": 6249,
    "xéo": 6250,
    "xép": 6251,
    "xét": 6252,
    "xê": 6253,
    "xêm": 6254,
    "xên": 6255,
    "xênh": 6256,
    "xì": 6257,
    "xình": 6258,
    "xìu": 6259,
    "xí": 6260,
    "xía": 6261,
    "xích": 6262,
    "xính": 6263,
    "xít": 6264,
    "xíu": 6265,
    "xò": 6266,
    "xòa": 6267,
    "xòe": 6268,
    "xòi": 6269,
    "xòm": 6270,
    "xó": 6271,
    "xóa": 6272,
    "xóc": 6273,
    "xói": 6274,
    "xóm": 6275,
    "xóng": 6276,
    "xót": 6277,
    "xô": 6278,
    "xôi": 6279,
    "xôm": 6280,
    "xôn": 6281,
    "xông": 6282,
    "xù": 6283,
    "xùi": 6284,
    "xú": 6285,
    "xúc": 6286,
    "xúi": 6287,
    "xúm": 6288,
    "xúp": 6289,
    "xăm": 6290,
    "xăn": 6291,
    "xăng": 6292,
    "xơ": 6293,
    "xơi": 6294,
    "xơn": 6295,
    "xưa": 6296,
    "xưng": 6297,
    "xương": 6298,
    "xước": 6299,
    "xướng": 6300,
    "xười": 6301,
    "xường": 6302,
    "xưởng": 6303,
    "xược": 6304,
    "xượi": 6305,
    "xượt": 6306,
    "xạ": 6307,
    "xạc": 6308,
    "xạch": 6309,
    "xạm": 6310,
    "xạo": 6311,
    "xạp": 6312,
    "xạu": 6313,
    "xả": 6314,
    "xải": 6315,
    "xảm": 6316,
    "xảnh": 6317,
    "xảo": 6318,
    "xảy": 6319,
    "xấc": 6320,
    "xấm": 6321,
    "xấn": 6322,
    "xấp": 6323,
    "xấu": 6324,
    "xầm": 6325,
    "xầu": 6326,
    "xầy": 6327,
    "xẩm": 6328,
    "xẩn": 6329,
    "xẩu": 6330,
    "xẩy": 6331,
    "xập": 6332,
    "xắc": 6333,
    "xắm": 6334,
    "xắn": 6335,
    "xắng": 6336,
    "xắp": 6337,
    "xắt": 6338,
    "xằng": 6339,
    "xẵng": 6340,
    "xặng": 6341,
    "xẹ": 6342,
    "xẹc": 6343,
    "xẹo": 6344,
    "xẹp": 6345,
    "xẹt": 6346,
    "xẻ": 6347,
    "xẻng": 6348,
    "xẻo": 6349,
    "xẽn": 6350,
    "xế": 6351,
    "xếch": 6352,
    "xến": 6353,
    "xếp": 6354,
    "xếu": 6355,
    "xề": 6356,
    "xềnh": 6357,
    "xều": 6358,
    "xể": 6359,
    "xễ": 6360,
    "xệ": 6361,
    "xệch": 6362,
    "xện": 6363,
    "xệp": 6364,
    "xệt": 6365,
    "xệu": 6366,
    "xỉ": 6367,
    "xỉa": 6368,
    "xỉn": 6369,
    "xỉnh": 6370,
    "xỉu": 6371,
    "xị": 6372,
    "xịa": 6373,
    "xịch": 6374,
    "xịn": 6375,
    "xịnh": 6376,
    "xịt": 6377,
    "xịu": 6378,
    "xọ": 6379,
    "xọm": 6380,
    "xọn": 6381,
    "xọp": 6382,
    "xọt": 6383,
    "xỏ": 6384,
    "xố": 6385,
    "xốc": 6386,
    "xối": 6387,
    "xốn": 6388,
    "xống": 6389,
    "xốp": 6390,
    "xồm": 6391,
    "xổ": 6392,
    "xổi": 6393,
    "xổm": 6394,
    "xộ": 6395,
    "xộc": 6396,
    "xộn": 6397,
    "xộp": 6398,
    "xột": 6399,
    "xớ": 6400,
    "xới": 6401,
    "xớm": 6402,
    "xớn": 6403,
    "xớt": 6404,
    "xời": 6405,
    "xờm": 6406,
    "xở": 6407,
    "xởi": 6408,
    "xợp": 6409,
    "xợt": 6410,
    "xụ": 6411,
    "xục": 6412,
    "xụi": 6413,
    "xụng": 6414,
    "xụp": 6415,
    "xủ": 6416,
    "xủn": 6417,
    "xứ": 6418,
    "xức": 6419,
    "xừ": 6420,
    "xử": 6421,
    "xửa": 6422,
    "xửng": 6423,
    "xự": 6424,
    "xực": 6425,
    "xựng": 6426,
    "y": 6427,
    "yu": 6428,
    "yê": 6429,
    "yên": 6430,
    "yêu": 6431,
    "yù": 6432,
    "yế": 6433,
    "yếm": 6434,
    "yến": 6435,
    "yết": 6436,
    "yếu": 6437,
    "yề": 6438,
    "yền": 6439,
    "yể": 6440,
    "yểm": 6441,
    "yển": 6442,
    "yểng": 6443,
    "yểu": 6444,
    "yệ": 6445,
    "yệm": 6446,
    "yện": 6447,
    "yệt": 6448,
    "z": 6449,
    "ze": 6450,
    "zen": 6451,
    "zê": 6452,
    "zêrô": 6453,
    "zô": 6454,
    "zôn": 6455,
    "à": 6456,
    "ài": 6457,
    "àm": 6458,
    "àn": 6459,
    "àng": 6460,
    "ành": 6461,
    "ào": 6462,
    "àu": 6463,
    "ày": 6464,
    "á": 6465,
    "ác": 6466,
    "ách": 6467,
    "ái": 6468,
    "ám": 6469,
    "án": 6470,
    "áng": 6471,
    "ánh": 6472,
    "áo": 6473,
    "áp": 6474,
    "át": 6475,
    "áu": 6476,
    "áy": 6477,
    "â": 6478,
    "âm": 6479,
    "ân": 6480,
    "âng": 6481,
    "âto": 6482,
    "âton": 6483,
    "âu": 6484,
    "ây": 6485,
    "ã": 6486,
    "ãi": 6487,
    "ãm": 6488,
    "ãn": 6489,
    "ãng": 6490,
    "ãnh": 6491,
    "ão": 6492,
    "ãy": 6493,
    "è": 6494,
    "èm": 6495,
    "èn": 6496,
    "èng": 6497,
    "èo": 6498,
    "é": 6499,
    "éc": 6500,
    "égume": 6501,
    "ém": 6502,
    "émarrer": 6503,
    "én": 6504,
    "éng": 6505,
    "éo": 6506,
    "ép": 6507,
    "ét": 6508,
    "ê": 6509,
    "êm": 6510,
    "ên": 6511,
    "êng": 6512,
    "ênh": 6513,
    "ênixili": 6514,
    "ênixilin": 6515,
    "êu": 6516,
    "ì": 6517,
    "ìa": 6518,
    "ìm": 6519,
    "ìn": 6520,
    "ình": 6521,
    "ìu": 6522,
    "í": 6523,
    "ía": 6524,
    "ích": 6525,
    "ím": 6526,
    "ín": 6527,
    "ính": 6528,
    "íp": 6529,
    "ít": 6530,
    "íu": 6531,
    "ò": 6532,
    "òa": 6533,
    "òe": 6534,
    "òi": 6535,
    "òm": 6536,
    "òn": 6537,
    "òng": 6538,
    "ó": 6539,
    "óa": 6540,
    "óc": 6541,
    "óe": 6542,
    "ói": 6543,
    "óm": 6544,
    "ón": 6545,
    "óng": 6546,
    "óp": 6547,
    "ót": 6548,
    "ô": 6549,
    "ôi": 6550,
    "ôm": 6551,
    "ôn": 6552,
    "ông": 6553,
    "ôtel": 6554,
    "õ": 6555,
    "õa": 6556,
    "õi": 6557,
    "õm": 6558,
    "õn": 6559,
    "õng": 6560,
    "ù": 6561,
    "ùa": 6562,
    "ùi": 6563,
    "ùm": 6564,
    "ùn": 6565,
    "ùng": 6566,
    "ùy": 6567,
    "ú": 6568,
    "úa": 6569,
    "úc": 6570,
    "úi": 6571,
    "úm": 6572,
    "ún": 6573,
    "úng": 6574,
    "úp": 6575,
    "út": 6576,
    "úy": 6577,
    "ý": 6578,
    "ýnh": 6579,
    "ýp": 6580,
    "ýt": 6581,
    "ýu": 6582,
    "ă": 6583,
    "ăm": 6584,
    "ăn": 6585,
    "ăng": 6586,
    "đ": 6587,
    "đa": 6588,
    "đai": 6589,
    "đam": 6590,
    "đan": 6591,
    "đang": 6592,
    "đanh": 6593,
    "đao": 6594,
    "đau": 6595,
    "đay": 6596,
    "đbscl": 6597,
    "đe": 6598,
    "đem": 6599,
    "đen": 6600,
    "đeo": 6601,
    "đi": 6602,
    "đinh": 6603,
    "điên": 6604,
    "điêu": 6605,
    "điêzen": 6606,
    "điếc": 6607,
    "điếm": 6608,
    "điến": 6609,
    "điếng": 6610,
    "điếu": 6611,
    "điềm": 6612,
    "điền": 6613,
    "điều": 6614,
    "điểm": 6615,
    "điển": 6616,
    "điệc": 6617,
    "điện": 6618,
    "điệp": 6619,
    "điệu": 6620,
    "đo": 6621,
    "đoan": 6622,
    "đom": 6623,
    "đon": 6624,
    "đong": 6625,
    "đoàn": 6626,
    "đoành": 6627,
    "đoán": 6628,
    "đoạn": 6629,
    "đoạt": 6630,
    "đoảng": 6631,
    "đu": 6632,
    "đua": 6633,
    "đui": 6634,
    "đun": 6635,
    "đung": 6636,
    "đuôi": 6637,
    "đuôn": 6638,
    "đuông": 6639,
    "đuốc": 6640,
    "đuối": 6641,
    "đuổi": 6642,
    "đuổn": 6643,
    "đuột": 6644,
    "đà": 6645,
    "đài": 6646,
    "đàm": 6647,
    "đàn": 6648,
    "đàng": 6649,
    "đành": 6650,
    "đào": 6651,
    "đày": 6652,
    "đá": 6653,
    "đác": 6654,
    "đách": 6655,
    "đái": 6656,
    "đám": 6657,
    "đán": 6658,
    "đáng": 6659,
    "đánh": 6660,
    "đáo": 6661,
    "đáp": 6662,
    "đát": 6663,
    "đáu": 6664,
    "đáy": 6665,
    "đâm": 6666,
    "đâu": 6667,
    "đây": 6668,
    "đã": 6669,
    "đãi": 6670,
    "đãng": 6671,
    "đãy": 6672,
    "đè": 6673,
    "đèn": 6674,
    "đèo": 6675,
    "đé": 6676,
    "đéc": 6677,
    "đém": 6678,
    "đén": 6679,
    "đéo": 6680,
    "đét": 6681,
    "đê": 6682,
    "đêm": 6683,
    "đênh": 6684,
    "đì": 6685,
    "đìa": 6686,
    "đình": 6687,
    "đía": 6688,
    "đích": 6689,
    "đính": 6690,
    "đít": 6691,
    "đò": 6692,
    "đòi": 6693,
    "đòn": 6694,
    "đòng": 6695,
    "đó": 6696,
    "đóa": 6697,
    "đói": 6698,
    "đóm": 6699,
    "đón": 6700,
    "đóng": 6701,
    "đóp": 6702,
    "đót": 6703,
    "đô": 6704,
    "đôi": 6705,
    "đôn": 6706,
    "đông": 6707,
    "đù": 6708,
    "đùa": 6709,
    "đùi": 6710,
    "đùm": 6711,
    "đùn": 6712,
    "đùng": 6713,
    "đú": 6714,
    "đúa": 6715,
    "đúc": 6716,
    "đúm": 6717,
    "đúng": 6718,
    "đút": 6719,
    "đăm": 6720,
    "đăng": 6721,
    "đĩ": 6722,
    "đĩa": 6723,
    "đĩnh": 6724,
    "đũa": 6725,
    "đũn": 6726,
    "đũng": 6727,
    "đơ": 6728,
    "đơm": 6729,
    "đơn": 6730,
    "đưa": 6731,
    "đưng": 6732,
    "đươn": 6733,
    "đương": 6734,
    "đước": 6735,
    "đướng": 6736,
    "đười": 6737,
    "đường": 6738,
    "được": 6739,
    "đượm": 6740,
    "đạc": 6741,
    "đạch": 6742,
    "đại": 6743,
    "đạm": 6744,
    "đạn": 6745,
    "đạo": 6746,
    "đạp": 6747,
    "đạt": 6748,
    "đả": 6749,
    "đảm": 6750,
    "đản": 6751,
    "đảng": 6752,
    "đảnh": 6753,
    "đảo": 6754,
    "đấm": 6755,
    "đấng": 6756,
    "đất": 6757,
    "đấu": 6758,
    "đấy": 6759,
    "đầm": 6760,
    "đần": 6761,
    "đầu": 6762,
    "đầy": 6763,
    "đẩn": 6764,
    "đẩy": 6765,
    "đẫm": 6766,
    "đẫn": 6767,
    "đẫy": 6768,
    "đậm": 6769,
    "đận": 6770,
    "đập": 6771,
    "đật": 6772,
    "đậu": 6773,
    "đậy": 6774,
    "đắc": 6775,
    "đắm": 6776,
    "đắn": 6777,
    "đắng": 6778,
    "đắp": 6779,
    "đắt": 6780,
    "đằm": 6781,
    "đằng": 6782,
    "đẳng": 6783,
    "đẵng": 6784,
    "đặc": 6785,
    "đặn": 6786,
    "đặng": 6787,
    "đặt": 6788,
    "đẹn": 6789,
    "đẹp": 6790,
    "đẹt": 6791,
    "đẻ": 6792,
    "đẻn": 6793,
    "đẻo": 6794,
    "đẽ": 6795,
    "đẽo": 6796,
    "đế": 6797,
    "đếch": 6798,
    "đếm": 6799,
    "đến": 6800,
    "đề": 6801,
    "đềm": 6802,
    "đền": 6803,
    "đều": 6804,
    "để": 6805,
    "đểu": 6806,
    "đễnh": 6807,
    "đệ": 6808,
    "đệm": 6809,
    "đệp": 6810,
    "đệt": 6811,
    "đỉa": 6812,
    "đỉnh": 6813,
    "địa": 6814,
    "địch": 6815,
    "định": 6816,
    "địt": 6817,
    "địu": 6818,
    "đọa": 6819,
    "đọc": 6820,
    "đọng": 6821,
    "đọt": 6822,
    "đỏ": 6823,
    "đỏi": 6824,
    "đỏm": 6825,
    "đỏng": 6826,
    "đố": 6827,
    "đốc": 6828,
    "đối": 6829,
    "đốm": 6830,
    "đốn": 6831,
    "đống": 6832,
    "đốp": 6833,
    "đốt": 6834,
    "đồ": 6835,
    "đồi": 6836,
    "đồm": 6837,
    "đồn": 6838,
    "đồng": 6839,
    "đổ": 6840,
    "đổi": 6841,
    "đổng": 6842,
    "đỗ": 6843,
    "đỗi": 6844,
    "độ": 6845,
    "độc": 6846,
    "đội": 6847,
    "độn": 6848,
    "động": 6849,
    "độp": 6850,
    "đột": 6851,
    "đớ": 6852,
    "đới": 6853,
    "đớn": 6854,
    "đớp": 6855,
    "đớt": 6856,
    "đờ": 6857,
    "đời": 6858,
    "đờn": 6859,
    "đởm": 6860,
    "đởn": 6861,
    "đỡ": 6862,
    "đỡn": 6863,
    "đợi": 6864,
    "đợt": 6865,
    "đụ": 6866,
    "đục": 6867,
    "đụi": 6868,
    "đụn": 6869,
    "đụng": 6870,
    "đụt": 6871,
    "đủ": 6872,
    "đủi": 6873,
    "đủng": 6874,
    "đứa": 6875,
    "đức": 6876,
    "đứng": 6877,
    "đứt": 6878,
    "đừ": 6879,
    "đừng": 6880,
    "đững": 6881,
    "đực": 6882,
    "đựng": 6883,
    "ĩ": 6884,
    "ĩa": 6885,
    "ĩm": 6886,
    "ĩn": 6887,
    "ĩnh": 6888,
    "ĩu": 6889,
    "ũ": 6890,
    "ũa": 6891,
    "ũi": 6892,
    "ũm": 6893,
    "ũn": 6894,
    "ũng": 6895,
    "ơ": 6896,
    "ơi": 6897,
    "ơm": 6898,
    "ơn": 6899,
    "ư": 6900,
    "ưa": 6901,
    "ưn": 6902,
    "ưng": 6903,
    "ưu": 6904,
    "ươ": 6905,
    "ươi": 6906,
    "ươm": 6907,
    "ươn": 6908,
    "ương": 6909,
    "ươu": 6910,
    "ướ": 6911,
    "ước": 6912,
    "ưới": 6913,
    "ướm": 6914,
    "ướn": 6915,
    "ướng": 6916,
    "ướp": 6917,
    "ướt": 6918,
    "ướu": 6919,
    "ườ": 6920,
    "ười": 6921,
    "ườm": 6922,
    "ườn": 6923,
    "ường": 6924,
    "ưở": 6925,
    "ưởi": 6926,
    "ưởn": 6927,
    "ưởng": 6928,
    "ưỡ": 6929,
    "ưỡi": 6930,
    "ưỡn": 6931,
    "ưỡng": 6932,
    "ượ": 6933,
    "ược": 6934,
    "ượi": 6935,
    "ượm": 6936,
    "ượn": 6937,
    "ượng": 6938,
    "ượp": 6939,
    "ượt": 6940,
    "ượu": 6941,
    "ưử": 6942,
    "ưửng": 6943,
    "ạ": 6944,
    "ạc": 6945,
    "ạch": 6946,
    "ại": 6947,
    "ạm": 6948,
    "ạn": 6949,
    "ạng": 6950,
    "ạnh": 6951,
    "ạo": 6952,
    "ạp": 6953,
    "ạt": 6954,
    "ạu": 6955,
    "ạy": 6956,
    "ả": 6957,
    "ải": 6958,
    "ảm": 6959,
    "ản": 6960,
    "ảng": 6961,
    "ảnh": 6962,
    "ảo": 6963,
    "ảu": 6964,
    "ảy": 6965,
    "ấ": 6966,
    "ấc": 6967,
    "ấm": 6968,
    "ấn": 6969,
    "ấng": 6970,
    "ấp": 6971,
    "ất": 6972,
    "ấu": 6973,
    "ấy": 6974,
    "ầ": 6975,
    "ầm": 6976,
    "ần": 6977,
    "ầng": 6978,
    "ầu": 6979,
    "ầy": 6980,
    "ẩ": 6981,
    "ẩm": 6982,
    "ẩn": 6983,
    "ẩng": 6984,
    "ẩu": 6985,
    "ẩy": 6986,
    "ẫ": 6987,
    "ẫm": 6988,
    "ẫn": 6989,
    "ẫng": 6990,
    "ẫu": 6991,
    "ẫy": 6992,
    "ậ": 6993,
    "ậc": 6994,
    "ậm": 6995,
    "ận": 6996,
    "ậng": 6997,
    "ập": 6998,
    "ật": 6999,
    "ậu": 7000,
    "ậy": 7001,
    "ắ": 7002,
    "ắc": 7003,
    "ắm": 7004,
    "ắn": 7005,
    "ắng": 7006,
    "ắnn": 7007,
    "ắp": 7008,
    "ắt": 7009,
    "ằ": 7010,
    "ằm": 7011,
    "ằn": 7012,
    "ằng": 7013,
    "ẳ": 7014,
    "ẳm": 7015,
    "ẳn": 7016,
    "ẳng": 7017,
    "ẵ": 7018,
    "ẵm": 7019,
    "ẵn": 7020,
    "ẵng": 7021,
    "ặ": 7022,
    "ặc": 7023,
    "ặm": 7024,
    "ặn": 7025,
    "ặng": 7026,
    "ặp": 7027,
    "ặt": 7028,
    "ẹ": 7029,
    "ẹc": 7030,
    "ẹm": 7031,
    "ẹn": 7032,
    "ẹo": 7033,
    "ẹp": 7034,
    "ẹt": 7035,
    "ẻ": 7036,
    "ẻm": 7037,
    "ẻn": 7038,
    "ẻng": 7039,
    "ẻo": 7040,
    "ẽ": 7041,
    "ẽm": 7042,
    "ẽn": 7043,
    "ẽo": 7044,
    "ế": 7045,
    "ếch": 7046,
    "ếm": 7047,
    "ến": 7048,
    "ếng": 7049,
    "ếnh": 7050,
    "ếp": 7051,
    "ết": 7052,
    "ếu": 7053,
    "ề": 7054,
    "ềm": 7055,
    "ền": 7056,
    "ềng": 7057,
    "ềnh": 7058,
    "ều": 7059,
    "ể": 7060,
    "ển": 7061,
    "ểnh": 7062,
    "ểu": 7063,
    "ễ": 7064,
    "ễm": 7065,
    "ễn": 7066,
    "ễng": 7067,
    "ễnh": 7068,
    "ễu": 7069,
    "ệ": 7070,
    "ệc": 7071,
    "ệch": 7072,
    "ệm": 7073,
    "ện": 7074,
    "ệng": 7075,
    "ệnh": 7076,
    "ệp": 7077,
    "ệt": 7078,
    "ệu": 7079,
    "ỉ": 7080,
    "ỉa": 7081,
    "ỉm": 7082,
    "ỉn": 7083,
    "ỉnh": 7084,
    "ỉu": 7085,
    "ị": 7086,
    "ịa": 7087,
    "ịch": 7088,
    "ịm": 7089,
    "ịn": 7090,
    "ịnh": 7091,
    "ịp": 7092,
    "ịt": 7093,
    "ịu": 7094,
    "ọ": 7095,
    "ọa": 7096,
    "ọc": 7097,
    "ọe": 7098,
    "ọi": 7099,
    "ọm": 7100,
    "ọn": 7101,
    "ọng": 7102,
    "ọp": 7103,
    "ọt": 7104,
    "ỏ": 7105,
    "ỏa": 7106,
    "ỏe": 7107,
    "ỏi": 7108,
    "ỏm": 7109,
    "ỏn": 7110,
    "ỏng": 7111,
    "ố": 7112,
    "ốc": 7113,
    "ối": 7114,
    "ốm": 7115,
    "ốn": 7116,
    "ống": 7117,
    "ốp": 7118,
    "ốt": 7119,
    "ồ": 7120,
    "ồi": 7121,
    "ồm": 7122,
    "ồn": 7123,
    "ồng": 7124,
    "ổ": 7125,
    "ổi": 7126,
    "ổm": 7127,
    "ổn": 7128,
    "ổng": 7129,
    "ỗ": 7130,
    "ỗi": 7131,
    "ỗm": 7132,
    "ỗn": 7133,
    "ỗng": 7134,
    "ộ": 7135,
    "ộc": 7136,
    "ội": 7137,
    "ộm": 7138,
    "ộn": 7139,
    "ộng": 7140,
    "ộp": 7141,
    "ột": 7142,
    "ớ": 7143,
    "ới": 7144,
    "ớm": 7145,
    "ớn": 7146,
    "ớp": 7147,
    "ớt": 7148,
    "ờ": 7149,
    "ời": 7150,
    "ờm": 7151,
    "ờn": 7152,
    "ở": 7153,
    "ởi": 7154,
    "ởm": 7155,
    "ởn": 7156,
    "ỡ": 7157,
    "ỡi": 7158,
    "ỡm": 7159,
    "ỡn": 7160,
    "ợ": 7161,
    "ợi": 7162,
    "ợm": 7163,
    "ợn": 7164,
    "ợp": 7165,
    "ợt": 7166,
    "ụ": 7167,
    "ụa": 7168,
    "ục": 7169,
    "ụi": 7170,
    "ụm": 7171,
    "ụn": 7172,
    "ụng": 7173,
    "ụp": 7174,
    "ụt": 7175,
    "ụy": 7176,
    "ủ": 7177,
    "ủa": 7178,
    "ủi": 7179,
    "ủm": 7180,
    "ủn": 7181,
    "ủng": 7182,
    "ủy": 7183,
    "ứ": 7184,
    "ứa": 7185,
    "ức": 7186,
    "ứi": 7187,
    "ứng": 7188,
    "ứt": 7189,
    "ứu": 7190,
    "ừ": 7191,
    "ừa": 7192,
    "ừng": 7193,
    "ừu": 7194,
    "ử": 7195,
    "ửa": 7196,
    "ửi": 7197,
    "ửng": 7198,
    "ửu": 7199,
    "ữ": 7200,
    "ữa": 7201,
    "ữn": 7202,
    "ững": 7203,
    "ữu": 7204,
    "ự": 7205,
    "ựa": 7206,
    "ực": 7207,
    "ựng": 7208,
    "ựt": 7209,
    "ựu": 7210,
    "ỳ": 7211,
    "ỳnh": 7212,
    "ỵ": 7213,
    "ỵch": 7214,
    "ỵt": 7215,
    "ỷ": 7216,
    "ỹ": 7217
}